node {
  name: "input"
  op: "Placeholder"
  attr {
    key: "dtype"
    value {
      type: DT_FLOAT
    }
  }
  attr {
    key: "shape"
    value {
      shape {
        dim {
          size: -1
        }
        dim {
          size: 378
        }
        dim {
          size: 504
        }
        dim {
          size: 1
        }
      }
    }
  }
}
node {
  name: "Conv2D/filter"
  op: "Const"
  attr {
    key: "dtype"
    value {
      type: DT_FLOAT
    }
  }
  attr {
    key: "value"
    value {
      tensor {
        dtype: DT_FLOAT
        tensor_shape {
          dim {
            size: 5
          }
          dim {
            size: 5
          }
          dim {
            size: 1
          }
          dim {
            size: 64
          }
        }
        tensor_content: "\031\315\242<m\370\023<A\314\266\272\322\327\221;\376b\241;\361qg<:\364\224:\235\017\375:)\366\033\273cx\005\274V\350\346\271\256\360\200\273\032\371\000:}\213\010\274\006\347\200<\203\304\334\300\213&S\271\377)\376;\251\205\r\275+\331\334;\233\244\030;\232e=\274-\201 \276k\'\237\274\265\236w\274\033$\035\273\342\0226\274\006\304\226\2720[M\273MN\3538f\277\263;\366~\214<o\321\033\275\366\240\"\273\0376\273;#\372\300\274\027kr<D\275\021\275\351\345\201:\313\367\247\273\327\263\356\274m\255R<\347R\313:<\230o\271\314\201d\273\010F\'<\255\017\370;\233\312\177\272\217\337\226:\256\203+\272)\370f<<\301L;B\256\242\273nP\3609:!o\274{v\305<,\273\\<\343\22069\t\000\307\273G\003\031\273\t\276\253\272G\376\006;O{\030\275\023\233\003=\255\275;\274aW\016\275\361\033F\274\\\357M;\276\206\"=\371\217\276\274\261TI\274\365PZ\274\211\262\357:\207\214\277<\201\2575;\'?d;m\315>:}\325\213\273\370\003p\275n]Q<8\221\026\274\360\363\221\272/\367\220=\344\304\325\274&\217\361:\357\3708<\223y}=\335\261\206;\034\211p=\234\032\020<F\372\270<\376\322:<\004\032\240;\224\343\3227\256\213\032\274O\343\225\274]Y\252=\357~ <[\326.;\\\005\277<\256v\262\274l5\237=0:\245;X2\'\274XG\006\272\241[\221\274\tR\317:L\200.:\217d\004\273{\235\226\274=X\017<|\\j7\341\202\356:my\324:\270\330\264;\327\315-=\237|\336;=\'\313\273\010&\256<\001q\341\275\010oE\275\"\206\021<\320z\337\275|\210\216<\2337s<\242\001\017\274\020hS\274(W\023=\000\200\210<\345\256\206\275y\300\224<n\240\231\274\215\222\021>^=\357\272Q\"\025<v\214\305;=\373\277\272z\007\035\275\370\371\273;>\006W\274\247\234\226<j\177\253<\267\226\325>\221-\302:\263\255\240<\340\354\362\273\316\310q\275\341\336O\275\356E\314\272\304\350+<wA\355=\232N\002=\373\323\314\275\375\274e\274\003(\230<K\220\220\274\354\322\236\273\310\233B\270\343\336\301<\354\263k\273\211M(\275v\002\002\274Uf\271\274o\354\001=\252\347M=1\214B\276\027Ln:f\220p<dl\303=\255\322\226=\037\266a\274\363Z$\272}\365\311\273^T\377:\342\324\255\274\350SR\272\302*\224\273\'T\212\274\320\n\211=C.\263\275\335Q\000<\222\205\271;\232\302\363;\275\277W>\307\006#<\374j\334\275^\267&>\260U\"\274Y\261;\274\204\371F\273&\266\216=\377/\353\275tk\003\275\315\267\254=\204y\347\272\312\234\234\273J\023\211<\230\267\321\273\026\207\360\273\241\324\2309\311\375\'\273\276\210\014;f2^\274\213\222\021<\260(\300\2749\261\257\274F`\256\274\315\222v;\324\n\367\273_v\001\273\326\251\252<4 Z=\215\021\213;\273>\003=G\302F\275jK\020\273\306\235\221=hj\350<jb\025\275\020\034\255:gI:<\001_\377\270G=\372\274l\224\260;\373\001\177;E\361\t;\270Y\210<\017\367\017\275\247\t\332\273\317\376\022>[\246\221\273\325\215\3119\354\034~\275 f\007=A\031\274\272\311-\322\270v\360\037\273`x\200:\375\003;<\327\232v8\316V\374:p\217\272<\210\2539<6\241R=\363Gd\274:\230N8\370\014\327\273\336\224\002>8\013j<s\213\262<\330\177\013=\361[\024\273\206\204\210\2733K\023;\021\177\303\274\374Rw<\351\365\316;d\276\302;\371\353h\2734\324\356\272\375]\300\273x\n\177;NG\212;\253\005P:\364h\031\273\210\220\236\301U\021\305;\255\343Z;\007\206r;\003\222*<\000\2334<$S\316\272r\023\200\272\227L\214:\337\216q\273\311\305w<b|\253<\307\023\003\275\323+\337<\273\302\362\273`Q\327\274rW\216\273\201x\377;\305\025\333;Y<\236\270L(.9\353\316)<\207\304\3528\365\204\307\273\225\235\224:#\025\222\272\356\217\272\272\201\026\003\275\353\2526<\226k\3268\307\312E:\010\r\353\273\264\235\324\275\224\262\344;j\367\35491P\316\271\032\352V;\202\251\002\2749|6\272\212\347B\272\312R\032\274\341-\246:\327{U\274{p4;\255\355\225\270\362\350\004:\320\350\361\274\270~\376;\r\"5\274\344\316|\275i\036\355:a\370\265\273q\005\020<\302\034\326\272K\224\242<vwo\275I\213\352;\262\016\260;\272\305|\274\3671,\274\213\032\347\274\275\007\025;\310\003E\274\013\205S<\341\332,;\254\r\'=k\027\t;u\303\306\272\237\314\031\273f\234t\272-f\000\301\225t&;\200\341\206\273z%D=\314{\244\273PbB\273s\373\272=\217\330\351<Y\206L=\334g\305\273_\271\345;N\207\317\274B8;;wV\033;k\000q\271\356Z$\274\304\230\237\273\363\313e=\321\304\203<\203\007\037\274\331y\002=\356\360\030\274\303\3007=P|#<\357\243\355\273\2630\016=Z7~\275\345&\326<\357\276\0107\371\237X\273\247\204\033\274A`\254\273\364\002\321:\247\2611\273\321$\203;DB\\\275\\l\237\274\n\252\206\274J\342\\;\302\026==\325\027\355<\233\267)\275\301\343X;\024\361v=\236\250,=\260\005\306\271\\\346\276\272\022\303\251<\303.\235\275&\200m=\232\2446>\362\017t<\237\323\323\272R\355\022\275\367w:=M\037\237<\314?Y=\250\210=\275x!@<^\0212\275xL\004\273\337@\006;c6\236<\r~\244\273\223\324\205\275\350\267\241<C,\260\274\274f\223\276\304\232\351=\223\007\177\272\000\n\356\275\031>\301>4\272%\275C\315\343\27334\277\274\316\211\347<\300\301\267\274\324\014\371\271\014\246\216;\342\374\362\272\007\354\010\274C\252\300\276\205:`\275\016\350\217\275\344\370/\276r\324\260;j\370~\275\233\226\036\275\252\272N=\215\200\005=V\357t=-\260\353\275\206\245v:C;A:\262Ns\273\323\223\001\275\345\2754:~t\014\273|S67s\224\325=\257\234\307\275\343L\331\272YN\241;\374u\303\275\267i\242\274\211\257Z<\304?O\273#W\235\275\201\221\241\275\256\230\200\275XqD<#\377n>2\262U>d\212 \276\331[:>Pl\t\275>\226\035>m\0018\276\256@\n>\336qp\275c<\234\274\313\362\255=\333\016x=\273\361g\275K\241\325<\002\305\206\275Mj\266\274\035\343\361\275\205\300\005;\373\357\357\276\373?\016=\262\246\241>\351L >S\222b<r\370[>\r%\266\275\267Y\237\275b\026\251=\314\2563=R\000V<\317:\231=\361\200\226<\231c\t\274\372\371\"\275p\0224=\201\330\237>\276\204\246=\013\322\006>|]\301=\222@\002<\031\002\305\275\362w\305>1Ua\2743S\177\276\034\005\200\276\212F\350>r\314\021\273\220\033\004\274\314I\315\274\370\344!<\370\272b<\225\0167<\017\303\003=\273\037Q\3006\212\230>\312\262\246\275\247\344\256\274!\036k\275k(Q=K\267\220=k\253\003\276+\266\217\276\254\222#\276D\024\277=fye<\tT\006\276,\031\031>\247r/>\216i\217\276m\245\331::\361\034\276\031\000\260<G\250\017=\017\230`=;\231\227;QPj\274\276\211?\276`m3=\346\210\240\274\035\303y=\253\363g=\361\300\212<\316F\221;\225\301\372<\235\323\016\274\023`\235\275\306BI\276\024I\256\274\344\271[\276bx]\275\312\375\t=\356X\210\275\002yS\276\241\324\035\276}\260W\275\256(C\275S:\201;\274\311\213=\242\310\327\274ly`\274#\t\036\275\216\372\215\275\2250x=\311\257\t\274\202dk>=\351\\\275\333\001i\274\322\023(>u\263e>\355 \312\275\355\355\245:z\035\246\273J\347,<hC-\271],k;q\330S\272\242FV\2750P\241=V\326>\276\236[\254<rw<<\245\017\366<\304\001\340=TE\203\274-H\230\273\232o\201>\2767\032=,,\321\273\303\302\233\274\375Z\270\275\212\367p\276\0143u\274Cc\263\275\253N\224;\260\034\266=\256\316O:\014\366\267\273\314\344\n\274l\317\216\273J\355w<\253\360\232=\375\326\340\273\377\226\205\273\360\353\215;\007A%\274\261\013\030\274\323\344\237\272QQ::\026\360X;\236\331\203<y\317\211\275:\351@<tg7\272\007\227\255\274#d\332\273\330\r\302<6\206\021<*M\014>\027\323\016:\nM\035\273\345$\0149:\312&\274\014e\014;c\300\035<\264\3542;E\245);\032\315\234\274\323j\305<\332\270\356\275\2402\300<}\340\365\273}\223\304<\024\304\004>3\026\250<\331t\007\271\256\314\037\272\264\257\273\273\253\270\220;U\007\331\272[\354\201\272\223\372B<\307\025&\275\267\251\312;\312>\231=j\334\322\272\033\336\230\273\345\365\262\2759U\030\274\006\331\035<\276\223\367;\262\021\206\274H@q\274\033\302\211\2734\035\211<\004=\201\274\006{\\<\351\226U\274\246\265\353;\221\352;<<\333T<\246?q\273\301\345Z\274\206\255\325<\007\017\004;\271\225\266\273\343\262\213\275\320%x:?7\217<f!\254\274\307\237\377:\310\264<\3013\250\311\270-\210\325\274::\177<\204`m<\003h\024:l\275\373\2750\224\031>\214\004\014\275\201)e=K\373\211\273n\361W<\034\t\213\274#\252\314\273+\215\207\272\221l\232\274\262\026>\275\303\270U\274\336\372\272\274\313\000%\274!\313\014=\312\215\242\274+\250E=[Z\226\274<\260\024=\332!\245=\007\025\004=Zc\000\275o+\207:8m\027\273!\302w<>U\325\272\347*W\274\351\263\277:SEs\274\377\271\342<4n\250<\232as\274\010l\302<\362\243\201\275\201\374\213\274e\323\307=\364\215\212\274\245\343P\274\251Q\301\274\317Dz<\344_2\273\217\315\317=\322\'\252<xF\237\275\004\300d\276a@\357\274\025\247\237\274q\246\n=9\2275=5s)=6\357\255\276}\207\236<[\234\003\273\272\310<>W\246+<\362\275Q\275/\352\013=:\240\264<[Z[>\030\026\234\274\306\313\316>\034\177\013\276D\347(\276\254\270\\;h\021\234=\345\330\303\275\331s\216>2\217$\276\216B\n<\206e\263\274\237H\312=n\264p<\211\275\272\273\345\177\275=\177 \315>\336\241\254\275\3040\004>\321\317X>\332\370\373=k\037\224=_\336\275\275\'\334D=H7\016\276\035lw\276go\302\274\246-\031>*\030w\273vf\234\273\034\001*>\305\357\322<\025\327\004:\360\354\341;\210\006M=\217\036\030\275\340\\7>\024r\223=\312\224\014\276Ec\'>\353\315\301=?to\276\242\317\320\272L\371\204>\310\207\371\27471\204>3\374\n\275\360\245\202\276\347\335\217\276\302\344\247>\237\356B\276<3\014>\270?\325<\267c\001>\220\317\025>UV\250>\035\361g=\016\230N\274r\257\367:=5>>\n\\\230\275i\266\210\276\370Zb\275\024h\204\276\337\246\237;\374\037\354>E\305\246\276V\017\013>5\022\030\276\242i\223\274\252\310\243;\322\247\235\276`\207\343\275\005jL>o|\335\273p\226\021>\341\243\361\276\352\265\224\2753\032K=\224\214\357\276`\r\332\276\371\331\301=\236P\007\277\014\215\202\276\277Uj\276\220j\255\276\362n*>\014\352\352\276\212\215\221<,$&>\352K\340=6V\006\277X,O=\257\343\347<`\"\221\275N\357\030\275e\307a\275\\\311\016\275\207\0019\275\373\240O>\035\271\365\276<\220X=\244/\337>+\233E>R\341\221\276\250\352\322\275!w\230>\206\017_\276\204]\233>\352\203\241\276\215\3579<\245\322w\276\222t\033>\232\270T\276\2524\261>;\270i\274\001\n@=\242!\270\274\251\036,<\233f\331\276\320c\207\274\201\006)\275\364\0045>D \241\275\356b\242=\024\272\261>Z\037\225\273\306#:\274\326\267t;\243\374\331\274H\362\372\272\t\332\210\274\005\177x>\210\317\312=\021d\350\275\325V\217<\344\274\247\275\0057\331\275\304}v<x\206\212\276\335\367\331>6\003g>\'\316\270\273\n\003\324>\361\017\003>t\305\204\272\037\205\271=\021{\227=T\217\225=r\223}\275\272E\305\275d\224\210=A\350\204<\347\014l=\347\000\364\276\254g\377=\242\006S\273T\205\373\273\032\372\362;\263\t\0069~\315\316;X#\346;\320\361\275\276\2121\214\274Y\364z>T\002D=\203\334\376\274Lpf\275T\237U\276/\270\325=\265\265\366\274L\234;\276\205)\010\275L\326\230\275\265:\206=n\n;>\344ul>\375s\343\274*)\273=\004\351\251:\337ri\275\344/\006<\231F\026\274 \223\004=\223\014\010<\221?\004<*u>\275$\023\235<\007\021\223\274\375Az\274;a\300;\357\317\333:\362\013\357\272\361\304B\273\340\307\217\273>\203f;ky\200=?7\204\275.\260L>\240\252\216\274\n\257\210<\253\032\337<y\211\254:\032Yy;\203\237\320\274\360\030\227\273\246\214i\272\002\335\026\275\303\376\364\274\013\221\314:\320\222o:\344_8\273.`\017<kL\220>}\226\\\274.\321\251\274\317i\037<{\212\226\2759\245\244=d$\000\275B\217\2229\215\017\256\273\322\365\321\273\240\376\313\273\354\275\322\273\273\321\022\273\316\246\202=\214\002\323<^+\326<\346)\345\275\342SH;\346\370q<@\360\335=\213\362\355\274J\372\004\274\024\357\302=\201\342\002<\356_m=\013\202\363\270/\201\325\273\022\254 \275\007\333\035=\215\276i\274\362j\276\274\311\257\027\2745\253\035\274\367s+<\335-T<\336\205\004\274\345]R\273\032)\036<\255+X=Em\007<g\007*\273\276b\314;\216[\037\274\3042\006\301Kz\\:\355\016\242<&\201x\274\371[\366\274J\364\254:\233\301j=\364\0041\275\235sO\275LZ5\275\376;\267:\032\3204=9\257\034<K\371\223;\004\222\\:\364\235\233<\240\025\234<\376\242\326;\317\253\236<\tw\226<\273c8\275\277\364\241\272\236?\014\273Wl\311;\347W\364\274\311}\332\275\221\022|<F$\034<\005\337&\272\303W)\273\361R\372\273\3240\200:\252\205\272<x!\325:\324\022L\272w\267M\274i\003\224\274\200\005\274<\006\'\260\274&\345a=\031\241\312\274\354Y%>\272\2209<A\254\"\275?\010\031\274F\000[\274\342S9\274\025\023\275\275\001\251\263;\357\342B=M\375\271=s\020)=\363\214\006=U\272/\2750\003@\275\352A\277\274_\243\201<\037\210W;\302\315\207;\261\300`\276 \034\022\275\2023\233<i\361#\275\257t\303;\013\322\024\275\213\330\276;Ey\242\274\254\222I=T6\257=T\035\342\271_C|<e\354i\275>\274\201\276\375W\360=\245b&\272rV\210\275\031\377\225\274\344\177\226\274w\264\271:\007\272\033\275\004\217\200\273Q\235\000=p)\205\275\204\0214\276l\3702={\023\n=|7\254<f\304a\274p#\003\276\266\316l>\032\341C\275\033\224\030\275\262\225\022;Z\0240\273W\231\242\275\320\307\037\272\345\035@\275\356\362\303\274\304\350\260;(4\213<\270\235\353\275#\202\227\274\321\216\020>a\303\311\275P\216\274<\321\313\243>\271%\007\275\337\243\227<\335bU=&\307\026>\337\026z=D\324\262\275\247aa\273\370y\010\276\305\305\272=uH\320\276\211\267R\275\332\314\225\275\333qx:\024\353\207\275\037(0\274\207\353\275\273\360\006\031<\376\033\022\276\257\205\227>_0\272=\343\234\231=\333QA;RT\355\272\257I}\274^\365S\274ZGH\275\003\370\211=\256!\372;\222~\004=\263\252\266\273\214\004\220>q\325.\276\300Z\216:V\326\024>Q9\004=M\253\352<\236\373-;eQ\320=\224A\211\274.D(\275\251\023\262>\344\2349>?\326\273=\303\336\212=\260\304\250=\303\376\346=xYk>\006\204\354=nG\251=\337\213\217=$g\013\274\351\r\000\274;\217\346;\224\020\230<|q^>yG)>\027\nL\274\217\331\252\275q \207>\024\235\226\274\222\275\341\276x\004A\276\2325\277;2O\251\276\251\371)=\320U&>*u\262\275q\r-;U6\202\276\272 \236>\215\251M\276\311\027\353\274\227\3451\276C\2262=\305\275\236<\356V\336\274\323\004\030<\351\332\226=\357\363\211;\3200\016<\037\035\206\274\021\027|=\327#\223\276u2\324\275;\262\227\273t\265n;H\363\353;\347\372\307;\351@\256\272\245]\210<8\312\365\275\207\364\340=1%#\275c\336\306=\305\2472<\023F\361=\314\246\216\273\370\2505>.|9\275\322M\200\275s\023\204:\217T\320\275\332\215\211\274\375n\313;\024s\216\274\337\351<\275\271#\357\275\230Ct\274\252\337\\\276\363\242\204\274n\276\n\274\360\211\261\276}\357@>\366\217\254\274\275\002\327:\374X\t\273\274\356+\2744sb<c\370<\275CK\326\274\020\371E>\025\022\343:7b\n\276a\252==M^\352<CEZ=q\225\363\273h9|;Y\336\232\274\270\247e\275^\256\221\273\262:\200\275iC\037>\'\3624=\013\253\305<@\210F=\036-\253\272\277\325\010\274\017d\024<`\211\367\272V\177>\274\255\017\342\272\203\364Y\273XY\013\272=S\207<B\226R\274F\371\277<7\337\340:Q9\343<\254\262x\273xi\233\272R\232\017;\236/n;\255q\324\273\220X\316\273\203IY\301\256\235\270\275\302\232`<\260\232s;\373\371\024\275y\235\2409\217\000&\276\r\025g<\217\202\217;b\305D:T\341\374<\'cx<\005\221\242\273ha\262\273/&F<\336\223\300<\245\207\227\275$\360\273=C\204\203\273.~\271\271\314 \315=\341\271\007\276\333\213\000<\303\345\2608\331@\354\272\276\201\027<\014\017t\274\014g\244<\023\264\304;i#4\275\373wo\274\276\231J\274\273\374l\275\320\372n\273+]\335\273\315@*<&\331.\273\304^\237;\245[\375\274\306\000 :\364j\352\274\261A\272\273&\240\226\274\324\023\202=z\325\023\274\355r7<\215\3131<\344\267\264:=\204/\273\323\357\202\273\"\221Y\273\367\334S\273\213\007Y;\355\236\014\273\233\263\343\274\250Y\216\273O\303\336\273\"\306\035\273$\340\332\273,\022\313\300\247\203C\273\031c\216\273)\316\242\273.\"^<\034)\232\272a$\247\274\020\364\212<\256\320W=\255\366\013<k\306\210\272pa\243\274.X\274\272\254f\3759%\236\3608\370\212\210\273\363\261\240\272]\1771\274\232\317\213\273O\330\260\272\373V\251;\r\305\225<\"\265Y\275\216.P\272P\355\200;\261\030I<3\340\274\273!\n\224\273\013\367G\271Z\t\026\273\31235\274\327\000\237\273\236\021\266\300\270\t\217\272.\246\225;\322\202\351:O\270,;8\353\337\271\353_\200\273\367\020\276\274\207\245\021\274\007\345d\2760\230\365\273\003\275~\2714\222\243\273\300h\247\273\356\260.<\034\360\004\273\245I?<\371\354\304\274\221\207U\274\2712m\274\344\210\026\273\215H\371;\303\355!<\315\325j;\025\"w;\202\'\342\272\317v\263:1o\200=F\216\302;a\265|9\013h\364;\022f\323<\206\233\265<\364\276\3649r\261\001\273\217k\333\273\317\366\\\274O\213\26297\3779<\217\317\023;\"\323\373;\355k\324\270\336\276\r;\353\2412<\320\271*9\376\256\236\272au\3109\017}\3479\261\305S\273\240\254\251;\242D\225\273\353\324\000=\350\255\307\274\251\030N\275\341Ss=\\5\235;J\0008=S\252\260;\206\372\203<\314\r\374;\272(\215\271\013K}\273\013\206\232<\204Ln\272\344\334,\300\271o\320;\243*\345\272\202\345\357\272\333W\037=l-\307\274R\nS\274\344\220%<u\255\205<\354wG>\221\035\224<\021\006\237\274\356\327\r:@\334\034\275\0200\256\274o\325\351=\374\274\022=\304\372\322\274\266+\323\274\343\361\230>B\227\377;\234~\204\273,\366s;\343^\205<hJ\2648\201\215\200\273\005\013\220\274/k\242:\236~\262\274\2328\362\274\377\305o\274\357q\000\275\334O\244\273_<\235;\216\021,<\342\212\036<B\027\243\274\215[2:J\356\216\273H\260\020\274\205\206\240\275\351\032\007\274\026k\016\2730\035\272\275}$\235\273E\361\327\273f\304\242\272\307\t\234\274\207Y:<\004\351\221;qS&=\351J.\275_D\213<\2253\034=\354\352\010=\240P\331\274\250\231B\275\256\300\032\276\037\305\317\274g\000\341\273\277JC:\220@\233\273h\240\207\273\331j\000<\372\202\367\300\'0\224\274\203\007\014\272\2478g<?G\207\275\005\375\336:\252\240\367<\327\332R=\233<\034<XO\310=i:\273\274\254_n:98T<hB\367\272\325\023X=\005\332=\275\227\000\357<]d\246=\302t\033=\324q\356\274\277\364Q;:\324c<\320\313\n\274x\244\200\274D\366\2549z\236\010;#{k<\317\265\257\274\354T\266<\320\017\312<\312\337v\273\317\341\207<&\272\203;\344\307\372\272\017M\n\272\020\235\006;/\352\306<b$0\274341\275\311v\277\273\233\205\247<8\244\304\273\032>d:\331\177\246=\240p\"<\316&\303<\023;\2469\'\262\255<\270\237\275\2732\357O;\357\202\331\274Cb\305<\252\033\202<\222\252>\274\234\251v\275\024\306\031<\227\034\377;\257!<>!\262?\275A\326\301;\375\024\2649\375=\235\272s,\324\273\303\300\r\274.\252\316\300b\370\306;z)Y\275A\322\350:\022M\013=\013\340\r<\037\\C\274n\276\315\274-\007\344\274\314\223\324\275\323tP8)\2342<Y\366f\274i\227!=\026\353.\275\035\363\221\275<\317\037\275\346\222\216\274\264\0372\274\212\371\245;\340B\365\273\325F\342\273\002\322\305;_\230-;74\355\271\033\274\031\273j\032\037\274\002\365b\273K\021\356\273\233O\244;\034\303\356\273\351\022d\273\342\362\277\272_\260\353\271\360\355e\273\302\n\253:W\250\213\273QX\007\301\001\001Z=q\207\253\2730\360\022\273\2540%<\236H\3559S\253s<:\331\360\271 \324\262\273\017\337M9\341\375\n:\305s.\273i\330)\272\205$\355;\342\026\352\273\036\034i\274e\354)<\353-\335<\3563A;\n\245\367\273\362@6\275\037\0376=\206JI\273{\215\r\272\227\3249\272o\035\000\273\360\240s;\003j\003\301\026\224\347\272\334\204\243<,\331\243;\315\023\302\273\"\2269<\260T\006;\t\350\226\273\243\023\014<\262\232\031=\247R\222;\006\021\306:7?;<L*\034;\303\3354:\036)_:\221\232\372\274"
      }
    }
  }
}
node {
  name: "Conv2D"
  op: "Conv2D"
  input: "input"
  input: "Conv2D/filter"
  attr {
    key: "T"
    value {
      type: DT_FLOAT
    }
  }
  attr {
    key: "data_format"
    value {
      s: "NHWC"
    }
  }
  attr {
    key: "dilations"
    value {
      list {
        i: 1
        i: 1
        i: 1
        i: 1
      }
    }
  }
  attr {
    key: "padding"
    value {
      s: "SAME"
    }
  }
  attr {
    key: "strides"
    value {
      list {
        i: 1
        i: 1
        i: 1
        i: 1
      }
    }
  }
  attr {
    key: "use_cudnn_on_gpu"
    value {
      b: true
    }
  }
}
node {
  name: "BiasAdd/bias"
  op: "Const"
  attr {
    key: "dtype"
    value {
      type: DT_FLOAT
    }
  }
  attr {
    key: "value"
    value {
      tensor {
        dtype: DT_FLOAT
        tensor_shape {
          dim {
            size: 64
          }
        }
        tensor_content: "H \273\300\2143\234\277\367\260\270\276#ZJ\300<;\005\276\'\277\020\300\351\010\036\277~\004\355@\217\215\343@\214\265\034?\263\'\344\277\3633\022@\355\244\361\300\230\027\315@;o\230\276\326\002\356?\361\335\233\274\237\323\035\277\245\2664@\301\310\361?=\017\233\276`&\315\277\2543`\276XH\263>\231\221\243?.\370\317@\255\377\037\277\247\372\203?\251<\325@o\200\340\300*\250\224\300\3210\365>\006\276\007@\360L3\277xn@@\233\315X@\030\350D\277\366s\305\276\250\024M?|\326\335?\3130\030\300`<q\277\312G\r\300<\243\364\300r0\307\300\275\334\267@ .\344@\312\004J@@\033\301\300\271\221\261@\244s\252@Po\320\277\264\316\242>D\343\330>\016\372U@\302\326\004>\343\275\325\275\210(\016\300\352\222\016\300\240\212@@\315\224\357\277\343K\213@\026\322\n\300s\003;\300"
      }
    }
  }
}
node {
  name: "BiasAdd"
  op: "BiasAdd"
  input: "Conv2D"
  input: "BiasAdd/bias"
  attr {
    key: "T"
    value {
      type: DT_FLOAT
    }
  }
  attr {
    key: "data_format"
    value {
      s: "NHWC"
    }
  }
}
node {
  name: "Relu"
  op: "Relu"
  input: "BiasAdd"
  attr {
    key: "T"
    value {
      type: DT_FLOAT
    }
  }
}
node {
  name: "Conv2D_1/filter"
  op: "Const"
  attr {
    key: "dtype"
    value {
      type: DT_FLOAT
    }
  }
  attr {
    key: "value"
    value {
      tensor {
        dtype: DT_FLOAT
        tensor_shape {
          dim {
            size: 3
          }
          dim {
            size: 3
          }
          dim {
            size: 64
          }
          dim {
            size: 32
          }
        }
        tensor_content: "\242p\030\274\014\322H=\343/\247\275\213W\241\275\355\263_=\223M\257=!\222\232\274\232\267\247\275A\3572\276#\345A\275},\254\274\265`s=;E\217\2725\023\257<&\303M<\376Q\206\274\276\"\033<N\333Q=\037\024\276<Y\236]\273C\247<\274#)\030<\t\232\226;\257\267\266<\2071\261\275-,B=\243\263\032\275,\363\220=Y\316\035>r\223\237=\355&@<\362J\302;=\030\231\272\2565l=\235\231==&\013\221\275\303\213\220\273\3212\377\273C\2105=\353\374\266\275\030\314+\276\324U\227\275f\212\231\273]\243\374;`\203\226<,\271\264\273Xdx>\232\303\216\275f3\303<\307\331g=W>\010\276<\177\021\275\322R\014\275d\224\004\275O\251r\275\032\353/<=\224\325\275n\207\325<\233\225u\273\000dg\273\0227\242\275\326s\013\275\n\3257\275\266A\236:\332\365\024\273X?\324<\032\355\303\274\3657]=G)\277=\231\357\213<\217\307z=BA\234=\216\306|=\345\2717=\225\226\330;\363\341[\276\343B\321;\212\237K\275\330l@<\234VB=\360\351\t=\031\241j:\031\212\242\275\nC\254\275S\347P\275\213\246\225;\350\215?\275\230\225q<u\267#\275\325\325_=\020\351o==\222\225=\250\364\024\276\253[==\374.\334\273\017C\226\273\302\222\312:\0364\021=\252_\002<\321\001\225\275N\361H\274\023\013:\275>\235\274\274\214n\315\274p\206g\274\014\021v\274\313]]<YO\026\274\336Lg<\336N\242=*)\235=\313N\222\274$\212\271\274\343\215\242:\224\345>=\213x\326\274O\013\254=$\030q<$\216\031\274\303\324\007=3O\200=q1\252=8@\310<!\331O>U\3202\275i\352\244=zWu\275\244\257\001;8T\3149E\270\006\275\266\236\322=\020\005\304<Y\233z\273\357\275\022=$\014\242\275(99=\027\007\275=\246\345\247\275\256\271W<\335\026v;\325\344\016\274\\\233\014\275\302\003\375;G\341\013\276\201\010\217\275\311\t\211\275\270\263Q=\376B_=\005~\343<\016>\267;\032\264\014\274,\341\037\274\334\206\253=\233u\225\273\nl><=\222W<H\204L<3\363\307\274*x\032\272\013p\031;\021\213\010=U+\017=\206\014\217=!4Y=oq\002\276\033\271\336\274\200g\005=\005\204\274<\210AY\276@\324\345<s\233\222\274}s\201\274;\212\363\274\301\377L=\222\r\314\275@\344}=\375\233\252\274\004c\376\273\206\017?\275\207>\033=\030\014\203=\375\374p=i\341\010=5\277G\275\336S\246\275\315\227*=\214\301\220=\234\010\310\275\355K\003\275\031$\203=\t\316\233\274\337\370\304\273\304\317\352:\224\333U\275\3704\336\275\n\257\332;!m0>3c\231\274\337\317\234=\037\274\327\275\234\207\202\275\367\002\301\275Y\274\245\273\002\312y=\330I\257<\366\034\333\274\306b\333\275S\232t\275IK4\275%\326%=\251+\241=\022\001\335\274\320\352\366\272\261W\357;\336\020\222<\013\366\014\2759\305\257<\360\204\271\275\263\222N=\271\344>\275\377[\315\275\232O\253=b3\242\275\322\322M;\001\266h\273\372\371\214\2748\353\241\275\206\007,=\017\'\313=u\375Y=\267\017X\275\270\007l=\023\374\'\276>\325e\275C\350\000\275\230\236+=}\027\302<\'\202\260\275\230\001\323</\376\333\275xD\256\274\214\213\"\275\3650 \2756Q\354;\213\305\366\274\275\307\300\275\005\017\222\275 \027\317<\302\315\232<<H\002\275\204\221\317=N^@\274\206\306;\274\237\251T>?\265\200\275\311\036\232<\351\307]\275\032\316\230\275-#\315=A_\246<=\320X\274\217D\201=W\033H<IA\325\275//\203\275\327d(\271\362ip<\030\"\216\274\377\360+=\365x\245\275W\020-\276\025\316\"\276\215r\'\275\355\323\034\276\236\211X\275\005\271\251\275\307p\005>\211\244B;D7\352\274\307B\247;\303&\377\275\274TC\275\314\351\227\275\r\231\024\274O\306^\275Q73>\022A\207\275\235\\\202=\337\034-\273pf\27093:\177</H\252\274{\332\227\275\001\300\360\275O\013\256<{8\241\275\354\022\331\274u5\206\274\356\261\256\274\3735&\275\344\312\364\272\256w\264<\031\251\321\274\3446\007=\357\334\017<\3349%\275\275~i=\204\371k\274\315\321\t=\033cQ</\211j\275=L\240\274\020\200\002=H\203\246;\371\374k\274B7\213\275H\\\267\270\007\361\210\274\016DQ\275}\257\321:0\205\345;\306\352\363;\350/\276<-\371\232\275d<\n=^\373\363<\222\316q<\367\037\210<\"|\242=\305\322*=!V\\;\320\007f\275\005\210(<r8\227\275\010\324Y=\363d\221\274\3768K=\031(\336=\006\330\021\274<,\342\275C\222\257<h\360v=\177\300\306<{\301=<\245\331a\274!\203\257\274\320\273F\274y\367b;\356\362\226=\360\207s\2754x1\274\270\016\272\273I\352K<\230\t1>I\2302\276\340\370/=\237\255\230<\036w\317=\256q\211\274\243Yk\275Dy\235<)\002A\275\225+&\2751]\316\274R\372\001\276\3277{=}Y\262\275bC\234\276\002\342l;)\2617<\333\303\241\275\246\325\037<\326\257\253\276\315\031\033>\005\177p\275q\nB\275\244w\220=>\307\203=\305\243\306\274\207\315\317\275`\231\362\274\364w\314=\035_!\275\334\370\035\273yJ\332;~\342Y<\277\207P\275hjH=_8q=\277T\272\275\374\242\347<b|\305\274\r=Q<\240 S\275\372D\207<\201=\206\274Tw\376\274\261\220\016\275\2014\307\275\016\3457\275\000\253l\274j\033\331\273\214r\017\274\010o6\275\221\327~\275,\305\367\273\246]\312;c%n<\334\276\003>\032^\001>&3h=\200\004\336<?\177\035=\243\240\354=]\302\215\275\234\213F\273\236\234c\275\345|q>\331\272\231>\307\241\333\275\353\005\252\274\330\373\243<\353\356\271\274+\327\235\275\360\2436\276L(\004\272\013\252\365<\336}Z\273]\037\220<9&s\275\200\330s\276R\330v>\232{\275\275R\317\007\276\243\372\006=\265\222\302=A0\266>\001\351\212>e\006J\275iN\030>(3\265=EK\021\276=\214\007\276\345\352\354\275=\010t\274N\335\335<\350\2242\275\306\'\326<\000\355\006\273\004\320\356\273\010D\037\275\232{\005=\216g\017\275\272\014G\275\273\251*<W\340\030=d\210k\275nOl<\273\223\234\272\010i\262\273I\364\212;7\244\\\275\024\207[\274\341\304\222=\'\247V=\211E1\276\367\323:\275P8\020=\220\275\212<m\204\207\274aAO\275\305O\025;\213\224L\275\371\374\204;\t\253\005\274\245V\242:\332\221\207:\007H\353\274S\323W\275\347\031\031\273\230\035\240\272\351\036><\021\255Q\275\271N>=.\221O\274\321\255\204\275\273B\025\275E\036\212=\340\r\350\273/\220o\275\034l];\315\260\254\273\014 \005\274\033\332(\275)^m<\032m\220\274\250\356{\275N\305F=\325\376*=S\303\211=o\314\234\274\364\255\035\274\345\361\267< \355_<\334\300\343\272ga\270<\205\024\341<\256\204\230:\312\233\272=qG\352;5\375U\275\212Q\206\273\355\017\355\272Wi\255<`|\274\275\363T\203\273eg\221\276\354\0361= \257\216\275\324O\305\275\241\0328\276\216V\347\274}b\030\274_\201\313\271\336 \226<\324R\201\275vK\014\273\031\243(\275\262d\374<=>e=\032\310u\275\210F\233\275\301\372\000>\374Eb\275e`\2619m\245}<\366c\327<H]\263<\030\253i;\302\177\342\274\317G\217=\237\030\022\275\3702\017=\376B\030\273\312\274\256\273\326\377n=|\3671\276\353\347\r\275\327\\\213\275\334i\302\275bZ\305\273e\301v\274\024\313n=\022bW\275\200\221\000\273\342\244\373\274UQ\013<\355|\252\275\361\221\212\274OY\324\275\236Z\r=\343\":=^w\210=\321Y\254\275\203\027}=H\021?=@\360\256\275+CO=^AH=M\007(\275v/\216=)D\326<|\371\014<\362\225\307=\233\030H=\234\020\244;\222S\020\273\200\025m=\350\377-=\235B\271\275:_\027\271\374\365\317\275\353W!\275\273\343\222\275\210x$>\360\031\224<\322d=\272\330\357Z;\355\032\262\274u\264\375\274\243%\314=tP\244\275P\306\004\275+\233\231\273\275\203\021\275\253\346\211=\307)U=(\307\350<\274\375W\275\331\353\265;}\246X\275:\240*<{\252?=\366\004,=\255\377\350\274\313\303\207<\337{^<O\323\247\272\311\237r\272\216<N\275%\350\340\275\\)\265\274\017\372\233\275{H\376\275\037\264&\275\'\213\301;\366\005\024>:1\312\274h%P:\346\2110\275\020)\304;\340O\247\274r\311\242\276\306\342\014>[\277\204\275\2531\240\275\350\367\004=\037\310\332<tq9>C\237\277\273\234\304G\275;3\343;\264\200\224<\340\275Q\274\233\217\251<\333\256\251<\344\270\204\275qj\200=Y\274\010\275Y\207\207\2736\365\230\275@>|=\007\207\252\276S\374\357<ff\254\276F\031\344=\342B\217\275\326\321\002=5\0378>\362\306\373<\002\245\004>\205z2>\237\007\332\273\3644C=\305\256\224\276\032\265\032\275\205\347I=\314\211t<@\030\360<)\206\017\275\n\243\236=\355\"\223\275\220\177\014=]\321\031?\307\244u\274\037p\243\276\221\305d\276\257\344\363\275\353UN=\2205\222>c\276\325<\006!2<\333\331^\273\354-\300\273B\013\227=\332\303\361;`}C\275\357\000\216=\177\354i=\350\361\205\275W\245\034=\336\003\212\271\020_\276<\236\272[\274\315Q\370<\376\030z<a\016(=\276&l=\307\0132\275D\346\327\274\265\330\305;N\277\t<\274;\243=`]\232\274\247#\033<\222$G<\231\235\251\2748\203\252<\254\340\215=\000\260\211<M\236B=\311\027\010\275\336(\252=\214\256~\273\320\263n9=\256&\275J%U\273\365$\216\275E(\372\274\013\024\205\275X)\207<\265/\363\273\243\272\341<\371A\242\275\020\312F\273l\020\305;\3009\320;\031]\026\275\332\213H=\252?\035\275\274\306\217\275@\324\314;\200\223\204\2752\0133=\267\340\271;<\240\254\275\364\205\213\275`~\020;[*#\276\215\027|<\333M\302\273\257\003\355\273Z\203\001\276\013\267B\274\344m\322\274\031\307\342\272$X\205\2731o\332<\320\001\300\275\375\304\264\275\302\347\243<\002B\323\275&\313S=\2111\243\274\373\321\333\274\322\370\023\273Q\220\373;\350\004\377<\3277\246\274J0@\275\2026\002=I:&<\310\221\013=L\330@\273\354\354\274\274Y\037\377\272\301r\202;\235\213\313=#\304 \273\326\343\336\272\352\225>=\034\342P;\270\002Z<=\251\002=\306p\305<\310W\032=J\374G=\0341*\274\207\235\206:Tj\r\275\" \321=\212%K=\017\032\375<\216\200\217=;\201\007=C\343U<\236!\027\276\024\335\002<u\364\207\274$9f\275||p;\352\035\001\275\354s\273\274\350\331\245=\345\016c\273w\301\027\274\224N\357\274rR\275\273G%\000\275\323\204\025=3\320\255\274X\036)=\355\340\275\273\031O\215\274\215\216\205<\333-\212=\0248\237\2754B\262\275\342\363\034\273@\344\347\271)\024\250<D\343\347\275\323\375\257=N\205\221\274\233\311\364\275\301T\223=\262\303\253\275\231\006\220;\321\304\'=\311\326A\275S\016\000\2758c\310<\372\214\205\275\213\237/\275\205\376\232=\275n\345<8\017\302<\010\252\274<\030\277m\275\364R\032\275zN\205\276\373\363\001\276\276\324\005\275f\212\240\2755d\226\275\346\227\021\276\r\342\207\275n\0047\273\306\220\361\275\300#m>_]\221\274\313\314\310\273\366\210i\273\365\001\272=\217\351^=\n\302|=uj)=\027j\205\274\013]\270\273\323A\004\275\327\341\017=>Y\215\275\276K\003<\000\330\266\274\257{o\274\227\220\226=\373\350\252\274\023\272\036>G\336\307<\330-8\275\014\275\315\275\373\033\242\275\215\275\273\274\336_\260=>A\202\272\\;\020<\261\010o\273\346\351\000=\242y\372;\375=\023=\022L$\276\251\006P=\322\210\016\270H\236R\273W\225\370;\2518\223<\345\002\226=\307;D<\312_=\276\225\317z\275\224!\003\275h`\222\275\344\350o=\231(\212\2757 \215\274\022\301\005\275 \355\300\274\264\"\014<\374cZ\276Z\356\313\275\255\346\233;\263\262k;\372LO\275\225\270%\275\333\323\024>\227\2229\275\345>\227\275\367H\327<\007\250\r\276:\267\'<|\332\016=y\250l\275\244P*\276ZN\215\275\220}\225<\333K\\\273\200\252\203>\203)e\2763\360^=\215<\215<J\257\300;\352\354\250=\001\033m\275\264\255\223\275|\265\236\275\306G\222<b\243\021\275\363]C<\346\204\017\275a!\334\274P\n\337=\272hy=\246W\246\275\225S\341\275\317\250\356\274/B\247\275Y \274\274\256\177q\274\222\352r<(\250\237\276fS\241<\376]\265:\226\232q>\277V\375\274\230\326\275;\225\006\026\275~\224\204<\222\204\205\275l\257\365=\316\201`\276M\346/>\337c\203=\203X\030>*\335\242<\316.\201\275$(\313\274Va\332\276r\331\247=\320\322:=\252T\375\275\006\002t\276\232c\246;\256\033\314>]\002\235\275X\374f=\213\022\202=\312\362\017=\376\345\306\275\26134\275\"\266\375\274\013g6=\260\362\033>\200~:<\022\313\027?y\241\006\2779\006\000\277l\312\341=\022l\373\2732\r\007\273\361\355\207\275\211w+\274\3457\n=\324\321\244\275D\'q\275\361,\203>;\361r=q \201\275\022\315c\275H\330\367\274\260\1775\275\210\336j\273}\037\257;@\366\213<*\034\210=l\t#>\371\360X\275\323]\217<\\F1<\257\331\013\274\324]n=\324W\206\275\210\372\264=F\242\202\275\263\253\320<\331\007\206\274Y\227\272\275\354\236\036\273\tz+=\242^/<\304Y\264\27504\364:o\324\337\272[<\3009f&\037\275H2`>\267\201\207=\314\036\222=\261:\201\275\001\272\024=\273\305\222\275\023\367\256\274\224\177\003\275\234\200y;\242\034\036=\257p\355\273\033\007\005\2765\335\025\275\322 \013>\021&\220\275\246qB=\3648\212<F\235k\274\272H\333\275\226C&<.\203\025\275\346Kg\275x\305\305\275\274\362\246<\343\236\315\275\274\020\332;d\241\3629\205\252\240\275\301\005\216=\300W\204:\301k\"9\375\307\037\275s\256\216\275\017d\210=:\261I<i\030N\275=K\334\273\367\003\327;\250h*\276\006\022\034\274\013\310\312;\301\256\326\273\252\034#<\312\312\375<[W\323\275\264\017\010>\334\024L=\337\'\321<\200\267\030\273\236\322Z=\nY\320\274\314\342\360\272N\317m\275\311\341\200\273\024\334\016=C\007\030\273F\240\266\274J\263\257\273\212v\030\275\344\222\002\275t5\025\274h`\332\272\3256\353\273\200\236Y\274\032@\314=\216!\256\274\3363\033>z\320\023\275u)\032\275\027a\232\275\234x\">F\232I\275\371\250=<\004\342P<hzt<3\264L\275\341\351J\275\206\243\272\274\270:\034;*\264)=\326o\225=V\3217\2758\247\251\2759\242F\275\031\253\256\275^\255\210<\343\021\017\276\300k\007\275\202\242\314=\372\rL\276\247S\010\275\301,\217<y\254\213\275;K4\274=t\007\274\002\210%\274\330\303\376<T\014i\275\311e\321\275\274\026\002<\354\250\t\275\033f\016<\2565\252=3\362\036\2750\013\217;\177\332\340\274\n\367\";4\200\020\275\026\204\227\275\013\271\304<zs\233;\222)\332\275w4\'\274!\364\202;\003v#>j\372o=\022\206\234\275\371[Q<|\337\227\274C\233L=M\2631=\341\356\371=\004\241Q\275\262m\026\275T\004\260;\354n\024\274~\331.<\342]\035=\360\207\261\275\306\222G\275AM\377\274E\306\340\275\201\270\252\275\232\232M<:#W<\372\214\236\275\230\316\313;\272\371\212<\302d\245<pQ\323<(\221\267\2757b\320=Nk\214\275\2515t\275\3066.<\324\222\322\274lTR<\314\376\220=Syl=\267 [\274\0313\370\274\026\322\241=\335\016\224<F/\225=\014\373[=b\347\021=\244\r\177=-\003\347\273L\370\030;\2438\363\274\216\305\032\276\241\013B\2730/\266=l\332\251\275\263\306\260\274oJ3<V\032\223\274\237\334\233\274\036\232\226\274\306c\372\273J\367\316;\240\003\"=\265\366\031=\313\330$=\314\'\014=R\037\001\275\207\272\254\274 \325_<.\275,\275Xv\265\274v\213\360\273\361\254\340\273\261\347q\275f\335\327\273\320\264\221=KB\t\274\275\036\317;\030>\213=\203\226\004\275\353\354j;\307\327\002\272\235j/\274:\331\235=\203\r\013\275\300\010\345\274,\310\226=\257S\212=\321\031\032<$}\031=\034\255\222\275\2650\346:@\253c\273\267\245\007\272\346W~=ik\022\275C\300#=Hd\352\274\273\256\246\275z\237\316\274\344\312z\275\363\344\220;j\313/\275\205\351\203\274\315\347\245\273\276\014\266\274\032\236\230\274\264,<\274\025<\200\274%\312C\275\343\355k;E;V;\344\227\337\272\001ES;S\300\032\275k\200\360=\3313\232\275\311\261>>\241\365\277\275\027\276#=\330k\330<\037\327\022>\026\235\'=c\231\367:\024*5<\004|\021\274_vb\275<\205@\275z\337;\275\010\\\023\275\211t2=\246\'q\275|Qp<\357\262\274\273\263/1\275\274\244\031<.D@< K\266\274\343\372Q\272 \275\245<\226\030.\274\233S\0279\222\2226=\304\023i<\023\266\342\273L\236\224;\332\262\003=\002\311\007>\263\214:\275\016<s\274\007\326\210\274\256\027\032=\003\272\020\275\036\270\037>\253a\263\275\025B+:\226\303S=qT\254\273\306\254\031=\256[\337=\256\352\030\276\304\234\2319i\n\225\275w\261A\275/\363\337\27286\016\276\342\306[\274S\361K\274\231\213\017\275w\216\255<\214$h=T\330E\275\244\233\027\275Rj,<\317\230\261=\2774\347<\016\014.<\017H\234:\204\252\265\275\265\010d<r\307\335;|\264\346<6\337\036\275\233\322H\275C\345\231<\230\342\340\274-\314\274\275\333\207\210\271rc\232<\246\300\010=D\233\324\274\262p\004=\351\303l\275\335\322\310\273+<\234=\017\372\275\274\025m\322\274\215nk\275U\276\271\275\340\315g;}\315\230<\306A\241<B\345\025<\233\252\357;m\304\024=js\256;\307z\306\274Vo\014\275\230\325\347:V\021\262;a\331\314\274\262\377\376<\036\200Q\275]\343\034\275\3370,=\332?\264\274N\203\034;\252\213\n>\331\236I<|=\225<\333\001\363<\330\r\202;\'\335\033\275\205)\004=F\033\200\275a\246R\2747\377.=\252\010\237=\270\266\236<\251\200,\275\306I\343<VnH\275Hp\250\274\217\205\235<\310\202\360<\214\035\251;Pua\273n\2153\274\355\013\274=)\224h=\262\256\301:\243\224\250\273\031\036\320\273\350\232\305\275[D\227=\010h\261\2752\002\373\274\026\227\001=\375\220\201\275\006\177H<\244H\227\275\235w\366\273hH\252<IS\215<G\273\303\275.\221\322\274u\037\014=\372J\247\275ZH\004=\356\251\205=1a\265\275@\227\367<\354_F=[\336\204=g\000\r\274*cr<s\000\373\274\033\326\264\274\036\205\340<\314\255\263=VC\363<s\244\207\275a\270o;\037\366!\276\225\376#\276\351\327\025\277\330\242\203\274\r\321\224\277I\334\225=\267*=<4\314\033\275\025\027\201\276dn\206\275#~S\275\234\025s\276e]\224\276\270?\206=\n\\)>\277\263\032\276\2066O=\213xn<\226+H<\223EC\275\000eO>\261\031\362>j\324\371\2746[\237\276\374y\250<=\311\331>\336\320Z\276\025\343\216>;_\203=<j0>\035\336\016=\235Ev>\373P7\276\177\223Y\277e\374\240\277\242\241`\275\341\r`>\r\321u=<\204\020=\270\227\337\275\327\255S\277&\225d\275\274\022\260\275\246\3519\276\373\364#\276\325<\331\274\257[:?k\'\302\276\315\330\'<\261\2402=\233A\205=m\213\245\274\020H@\277^\300\'?\024P?\275\331\225\355>\245v\210=\240\200%?\0370\004?\360Y\372\275\363\234\217\274\002\224\211>\014\246\314;B\332\000\276pb\225\272!v\313=\376\326\251<\363HC\274!\363\030\275\247\0344\276G\363\270;q\314\344<\033\257L\275\213\354;=\2506\330;\235\261\223;/\306N\273\340F:\275Hg\324<\233\225P\275;\000@<\336\267a=\323\035\352\275s\225\274\274J\241\023\275\260I\021=\377\332\326<7&\031=?I\252\275$\374\221\273\257\307\001\275\211\t\376\273\203\267\341\274\"\354\200<Y\361\362\274\274U\255\273,\255\263\274\024\227T\276C>\375<\247\311^\275\231\365B\275N\264\327=\244L\224\275*\337\274\273\244\311\374=L\001D=\214\206\251;\356\342\243\274gw\367=qU\224<\250\027\031>A5\n\2766%e=\356\257&\274\346\203.\275\177\"\374\274e\273W>\225\347\243\276\223~\211\275F-\370=\2553\t\274}\305\231<\367\271\227\276\323~\246\275\250f\336\274\323\350\346\275\275\320\216\275\343\027x\274}F*<\326\255Y>\305\3367\275fLQ=\n\221X?E\346\037\273D]\215\275c]\207=oEM>\024\235\342<\252\330\325<h\205\374\274|\243G={jV=\217\247\215>\312\203\257>\305\020Q\275\336\253Y\275\365)\253\275\241\021\220<l\005\340\274\226l\242\275\"\037\213<T\307\341=\212\t\002\275V\221\226<\214\\q=\367\206\324\275*\273\306\275\207I\200=\'\373\\=\213\210\225\275\3518p=\236\241T\276\354\326L>\303>F\274\t\370\307\275\316p\'=a)\214\275l%\223\273\245\210\211\276y(X\275\273\216\237\274\260\355\006\2756\034\215\275\224\\\2019\261\373\007=\236\326>=\274\2421=f\302\247\275\253t\263<\366;G<\236\206\002=a\002C>\205\332==\201\235\r>\201\017\007\274g\356\032\274\271_\224\276.k0>Br\005\275\3033U=\265\231t\275\245>\245\273\260;\353\273\316\357~\273v\332\035\273\364\311><\373\267\t\276\352r<=Z\251\251\275\374g\231\275\306g%\274T\023w=\315\021O\275\020\203i<r\r\007=5hZ\275>\177\212\276#\250\204\276}\322\352\274\236#\234\273\3163s\275\364\360\243=\230\277\206\275\326\300}=\014 .\275\311\275b=tu\007\275 \201\254\275\311$\206=\204\264!\275\261\362\037<=\320t\276q\335D\275D\373*<\260qG\274\274\265\372\274?\315\246\275w\331\300=+\274\002>/^O=\331\247\376<s\315\211\275\"\323?\275#\251\343\273?\374q<c\347\026\274\332\361\344\274E?~\275\270\366\351=\260D\357=!X\312\274\024\r\310=LK\"=\347\361x\274\234\323\032\276\004\307\023<3\311\273<\301\203\325<\022\023\367\274\305\207U=\226*z<\243\207\005\275\242\370\313=; %\276Bt{\273V\265_\274A\334\323:\214\256T=\025\221\203\275\203\310n=/\303\016>\004\252\347<\t\251>=\351V7=\223m\347\275`Tl;\311\374\014<R\364,<\250\311\226<\013>\235\275\300\253\006>\253}@=u\026J\275\333\313{<\2532q\275\177\304/\275\256\216v\275\177\032\246=\325\256\236\274\177?{\274exI=ez\260\274^#9=\362\216]<\255\372\211=\263<\355<\235\241>\274q\306];\354\270\225:\333W\006\276bE\210\275\336\021\266\275\377r\271\274_\335*\275\205m\017=\305\333\261\274@k\210\271\336\351:\275xa\203;\343)\321<981<\252\207\277<\227!$\276$%\005=\n\035\221\275\321\203\331<\246\325U=\270\327\327\2754+\225\275K0\022=\270\\\223\275TR\t\275\362\336\370<8\224\251\274\270\362\376\275zk\320=!E\2409\017\356O=\2118u\275\'4\227\273\206\3728:\177W\374\275-J\271\276|\0108=\264F)\276z}\200\275\213\333\241\275\355\023==\355Tj\276L\000\t=\344&e\274hW\345\272P\265\306\274\014s\325\274\303\301\034=2:->+\"k=X\321\302=\312\026\253\275:\255\365\272F\024\021\276Q\013R\275\345\227\216\274O\304H;@k!\275\351\320\020=\315\370\005\274{\215$<\377\333\220\273\371\025\002\276\307\023\002\275\205\267\022\274\256\346\006\274\344\326\206\272]\017\253\274\013\330R\274\032(X<\242O\331\271\232\310\200;\372\360\210\275\277\221\245\274\314\314\274<\335Y5\273\355\220\315\272\267\372}\274\2645\023=\010\035\346;!%\232<\024\302w\275\311\2073=1^\013\275l\201\003=\205\330\217\275\312\257\237<#\221\210=\373K\005=\'\334\332\275\352~o=\017\213.\275\350\355\361<\2160)\274\020\016\r\2756\376;=\2252#\274\000\n\352\2723\312\271\274\031F\225\274\364+{\275\262\351\006=\252\364V\274\265\316\341;u\300\201\270\213OK<[\035\216<M|B;\221\201*\274w\251\274\273\365!<\274\257\261\3759\033f\300\275\003R\020\2754\311\244\275\230S\232\275\\6L\275\240\364m\274\223U\212\274\362\223m=R!\225\273\311\001C\2755{y;\0067H\274\243\303\274<-\246g\275\265\326\310<\251\236U\275\305\207\r;\225J\010;\250\321\367<F\341(\275c\320i= s\253<&$\025=2\017\"\275\340\215\003\275B\307e\275\\\032S=\273\326\231\271p5\317\271\221t\035<\334\200\212=\322\362\224\274Q\343\334<\341C\021\274\371\013K=!cw\27587\367;C\247\244<T\022\202=\331\250\251<%\231\377:Q\2344<\2541\303;\3376\033<\033\342\340\271\364,q=%\271\234;\376\024\033=\315\002\031\272g_\315;\004B\202=\023\350n=\237We<\030\307\343=I\270$\275\021YD\275@+\r\275\200\220\242<\337\346\245=\264\316\233:Lo\331<}]\305\274\025uh\275?\347\353<\3431q=nQ\205=\246\023\212\274\n\277\235\271\026\000\005=\324\312>\275\004 \214=g\266C=N\362\375\273\340a\326<\230o\307\274\334\203~\274\256\017\251\274W\267\332<\250\316\331<$-k\275\007\014\231;y\276\205\272[U:=\234U}=\215r\3769\nr\005\275s\021\213=\207\205e=\3640\270<\\\031\307\275\323b=\274\342\307\003;m\361]<\204c\327:k\335\323<\006\367\361<)\023\270<\363\331a\275J\217\253<\366z\267\275(\303\206\275m\367\345<\00367<\001\356\342<b\260\225\274\017\275\202\274B*\367\2740\027\311\274 \224\260\273\231HM=,\326\254<\006<\363<m\027\254;J\001\271: \335X\274\260\207\022>\001Zz\275\202o\356=\274\034\315\273\035\271\004\275bj8\275$\345\n>4\007\244\275U*`<\031\010\024<*\333a\274Q\340\352\274\324\007\346\275hd]\276\343\214\266\275\244\"(=\355\270q\274l\376?\275\311e\231\273\014\315\350=\2562\212=%]\367\274\202<\025\275\334&U\274\354\222\333=\363\0015\274Gn\222\274\0200\007>\360A\n\275<9\010<\312U\t;\2361\231<\331U\336=0\270\200\275\304\320\">\376e\031\275\270\034\244\275\320\326n<*.[\274\356m\225\275.G\360;\034\000+=UK\334\274#^Q\275\232+b\274K\373\257\275\361\262\004\273\350+Y\275tyb\275*CC\274e\242*\276:\242\223=\014\340\216:IZD\274\367:\341<\356\014.\274\220\\\202\274\346F\t\275\022\314;=\201\223\017\275\007\316V\274\021\014\221;\225\243\242<\311\370\266=\261#\t>\376\014\240<F\023t>\301\300\262\275e4\231\275\273\270\026\274e\223\301=\320\317t\275;\254\004:w\302\317=\227\031a\275~\034\234<\311\007\263=|a\351\275m\306\201\274\tG\336\275\344\002\004\2755:b<\257-\313\276\252\232\230=\301|\030= \0270=\302c\r\275\212s\006>\215_\361\274\221zw\275@3\225\275j\367\247=\317\025p\275\241\024P\273\017\010`\272<(H\274h\226\036\275u\273\034</\320\221;b\"\n=M\035\020\275\023J\016\275\211\311 \275\374M\276\274\037\331\2459\311m#\275<\200I\273\241\265%\274S\313\005\275\310\r\226\275\254\344\246=\214\240U\275\007\014\000<\023\325\372;\336\265K<\n\"\031\275\017#\016=\207+\315\273\331x\356\275-\320>\275\3535\277<\'\343\226\274\333W\331\275\363W\022\274\362jD\275\344)i;-\002\302\272`\n\330<\t\377C\275\2424\030\275t\010a;V\351\036\275\360\200\204<\024!\307<\366Se=\347%\037\275\342\226\376\271\227\201I\274\230\367\320\274\2714\306\274\024\236\363\275Nr\007\273\365\007\"=\030\307\377<\226\316\345;\324\3259\275\245dT\275\001\207\236=e5\'\275a\342.<+\241\334\274P\277\250\273G\363%<\212c\205\274\235\267\226\272\245#^<v\017r=\324:|\273\3235d<0\366/=\016\374\"\275\216EP\275>ki\275eh\032\276Z]\361<\200o\'\273\327\313\237=\361\0041\273S\212\333<\263\001\262<\227?\207\275\3156\225\275\250@\334=\303\321\314=\004\307U=\224<\310\2710\030\300\274\360a\367<\314\014%\276:M\252=V\242\035=mK\006\275=y\245;2\303\253\274\231\356u<\206\346\026\275\275Z2\274\347,\000>!6\301\274\"\010\274\2723\261G\272\271\326\251:)\004\211\273\375YY\275\235\330\374\275\204\235\327\276*f\330\275~\276\342\274\227ow=h\201U\275\346M\240<\253\024\026=>\001\024<ER\317\273x\337\'>\330Q\'\275as\235\275\333\314\355\275M\3313\275\024\211\217=c\017\023>\3032K=\\\2778\274p\324\241\274\030\335.\276\274\235\2648B\357\014=\361\353\233<\250_\361\275\303\341!<\3516\355\275\271\220\246\271t\213\201\275Cu\250=nt!\276\330\303\230=\'\322u>\251\360e\276\350\360\262\275\230$r=\355\257\032\276\350p\251\275\266\252]\274\261D!\277v\243Y=\306\263P\275*=P=\333\2600<\237\001\275\274F^-\275gtN\275C\030\002\275\233\3633\277\374(\n=\201`i<\223$\216=\036\246\025\274\316L\025\275\031\375\200=f\340\267<\323\025\364\274.\215e\275\tM\220=\230\204W;\311-\306\273\345\265\324;q]}\275e\333)\276F7L\275{\353-\275Mc\315<\307\304\236\275#\260\214\274\361\227F=L\247\216:\327\301d\274\204U\333<\014D\326\275q\376M>\337\322e\275o\217\201<|eQ<K\367\333<{`R\273\t\213\014>\316\"\022<\247,\021\275\333\234j\274\276\321Y=\261\307\005=\350G\321=\010%-=\361|\322<\321\223\331\275\225\257@\275\r@\223:\305\360X<\013HJ\274\225\263\016\276\027x\252\275<\346\276=\021\305\364=\355=\036=\243p5\275K\251?\274}\233F=\234\013\'\274\3635\312\273\312?\235;P\n%\275\230\206,\275hZ\376<?V\300\274\270\313\270=\017\'\206=\247\267\361\274+\245\016\276\337\002\242;\210y>\275\2700_\274\305\276N=1\323\230:\352[I\274\360\266\2269\324\206\025=\320\0365\273\014\274z=\303\347q:\003\200>\274\026\330\030=\374\003\254<u#\212\274\254\365\247\276P\2331\276\031\305\021\275\366$\017\275zO\212\275\024l\356\274:\034\344;\356w\027\275|\357\027<[\360[\275\351@I\275\004\213e\276\013v\254\274\330S7=p\354Q=\360\025d\274\363\272\240=\216 :\275\343[\215=\212\203\211\274\362A\t\275\005\207\234\275\032\314 \276\323G\213\276 U<=\020\350\204\275K5\214\275c|j;\234\303\244;g\312T=\241\366\371\274\016\332\002\276\365K\\>\024\211\034\275\2706\016;\337\2504=\360\017G\275\021\376~=\256\350\003<c\263\034\275\213\355\020=\010\000\353<o\215\031\275\024\031\'\276\202\205\317<C, <\203\232\202=\002Z^\274\377s\355\275.\300D<\211<r\275\021\254\256;,\335\227\275\032\267\027=.\0337>b\315\340\275)\325&=\305\362\005<\004{s\275\204\366K\273{$\034\275d\016\r\276UL\367\274\261w\221\275v{@=\202\013\206\276\345At\273p\375\'\275\273\2134>\036\216j<\031\324\342<\357\354\265\274\313\r\310\275\322\233\301;\310;\016\275\206\204\271>\277-\236=Ez\264<\331\rC=\306\010X\275}P\252=Sw-\276\336\314\013\274\211\374\267\275/I\354=\200\333\267\273\202\336\030\276|N\351=E?\3649Ux\314\276\376\313q\275d\301\013\275\334\261?>`$\210\275_\261>>\260\256\224\275\257Y\036\276\362^\231\276BE\020=\365\240\356\275_B#\275\207\244\353\275\246\206\211<\322\306)\274&\215\222\275\224\016\277\275;\361\244=\264\376*>\252]+\275!v9\275\232\217|\275\256u\331\274QL\306>_\nU>\255\333\232\275\\-m>\0009)\276\\\224\243>qR\017>\362`\024=\346+\007\276\377\032\257=\353\264\033\276\237\'\315\274mF5;\216\031\274\274esS<\300\024\033\273\036\024\242\275%\233r\276$\327\002\275Zs\317<h\240\247=/\346x\274\027N\014\274Q\274\254=\022 \365;\326h\221<J\314\213<\234\r\002\275\325\254\262\275f1m:+\302\322\272\000\266\266\275.\342.=\370)[\274p,!=\343\347\026\274fW\223\273\265YV<=\230\317\274Sc\024=QW)\275\244\252\007=}\234\312\275\223\366\302\272\232^\007\274\276\320\325\275\253&B\276Xr\005\275\3260\242=\346\217\303\275\321\004K<\271\212\311;\345\325B\276\250\312\024>\333i1\273{\t\376\275\301\331\301<\362%\305<\210\302==nP0\275\243\256\224=Y\201\326\273BE =\370\243\201\275\005\307\023>\203r\261\275\211P\251\274^\307\177=\002B\032<R\224 \275-E\227\275\375\002\321\275\006\2339=T#\247\275\352\006\016<\361\352\311\272\210C\345:\020\226\340:\2716!<\307b3\275\307&\016\275\342\227\327\2762{\351<*\010\232\275s>&=\216{x=8k\001\275\255<\024=\277\307\025=\235\226\252\275$\004\222<\324b\252\275ej\300<\275\t_\275\001\3179\275\245\310\224\275\372\346u>x\002\001\276\'c\257<m\361<\275\326i%=_9w\276\335\031\"\275o#\307\274\021\027\242\273{{\271\274\263\022B=dc.<\254\307\336\271d\0349\274\367\177\353\274\357\001f=\300\003\355\275\207@\366\275f\020\347<\310?R<+34\273\256^\332\273(\241\304<\2504\357\274\026t\376;\234e\024\274\260\250\377\274\004\022\362=\037\342c\272\263X\232<\343&F=\206O\t;\254\033\370=\014\370\236=}\365\"\275AZW<\370a\305=H^\001>\361\220\027\276b\260\252=G\213\r=\343\200@\274\320G\312\275\344\0224;\316\372J=\016yM\276\372\265s\276F\201\320\274\370C)=\024\245\232\276\346\246\301\275\315\n\365\275\236\300\326=\260;\364\275+J\307\273\207\020\034=\303>\001\275\017\005\013\275z\332\251=\246f=>\322\035\212\275A8\210\274\256\316\002=c\036H\275\353\347\257>\216u\235<O\337\"\275-\372\242\275)\235>\274\365\270\220\275%\266\233>`\202\"\276\004p.\275\323H\224=\275\203\254\275\324\024q=\221\367\020\274/F\275<f\370\002>\251\314\237:\213\022\356\275\213\270\330\275v-\250\275}\226<\274\214A*=\323\020y\274)!\261\273\256\225\346;+\347\275<e\342\354\275\332\221\017=\267\n\313\274\21035\275\204\3601\274/\204\226\274C\177\232\275J\262\305=\263\266\237;\216\003\242\274w\214\'<\001\235\317\274\177\t\3719\366\366\316;\250ih\274v\016\324\275\244.\031=)\377\324\275\355\266B;\232\025\024<s\t\r\274\023\360 >5\375\002\275\332\203O\275\017\2628\276\335\211\313=\350\346\251\275\304\263\262=\231\263\201\274\312\3015<\347\346\275\274\222\316o\273\3327\234<\366\"\311=m\216\323\275<\326^\275B\335r=\206\246==\266\032s\2751\253\252=\305\363\235=\312_\004\274j\002\262<\362:\234\273B\262X\275\312\332\312\275\253\300\352\273\247\316@=7\346\204\275,/9<\262e\030\274\034\375\r\274\227s\030<\001\333@>7u-\275\020\017\271\276\367\004&\276?B\330;\337\235n\275\201\362\037\275\021?\332=H\222\t<\311\246w;{\377\005=8\320\326<\255\246\354=J\034\366\2754X3<@Wt=\237\324\217<\213\332\336\275\354\217\214>p\273\031\275\370\020\376\2756\271\372<L\352\240:\327\233\334<\352R\000\274VG\362\274\237*~\274{$\"=i\355[\275Oa\373\271P\001\237\27218\251\274\256;|>\371\356^\275\0270\210\276\230\'1\275\351]\263\275Kc\202\273\323\2056\276\036\304\177=Cq\276\272i\255\333\274\\\332*=0\270\212\275\233\337\032=\276f\004\276v\'\227=m\260\250\275\026q\035\275\371\003\344<\210\201@>w\336\265\274+\372 \275S\330\202\275Sj=\275Y\2241\275<{v\276\372\275\263\275j\323\265=\007\222!\275\005}\226\273\343\261\207\273\n\253j\273K\232\203\273\377IV\275D]z\274\325\274\351\274\3008\210\2760\224\340\273\016\032H<D\271B\275\374-\022\274\345\211\2479\213R\262<V\nW<\327\032\035\275\275Uv=e\305-=\007\253E<\245;\240\275\230a\224\275(\377R\272\275\003\232=\234%\353\2747}\000\275T6\217<c\310\207\275X\254J<\236\341x=\214<\000\275\350\367\201\275\364\235L=a\370\237\272\2712g\272{\224\033\274\203\027\030\274Z\3655=M{p\275\360\341\030>A\026X\276\342Y\350<P \021\275s,\243\275\"\245\224\276:\r\351\274\220\315)\274W\301\202<VP@\275\304\333p\275\355\252\t\275\316\331\253\275G\206\200=<}\013\275\303\251\302<\275\037\264\275\201\226\030\276D\r\271\275\273\236N=f\033w=\340\323\235<G\265\030=wEE=\276\332\246<\207\262\335\275%\206\022\276W\213\336:\251\263\307\274@\006\t=Kj\314\275o\361\007=\000]\237=\251\247V\275\315\035\010\275\2021\227<\250\305\330\275\3273#=\277b\247\275\274\247\213\276r%\314\273\205\325\207\275w\375\216>Ce\317=HV\361;#\"\014=\226X\222\275K\004\035=p\026d<R\001S<\005\277o<4uR=\207d\321\275*\352\240\275\010v\317>|\257\006\276\2203y=\275Z\023>\023\216\315\275\026\313\001<TW\220;fy\252\274\340.\220=\350\017\360<\033\201#\274m\300 \275[`Q\275\306\277\014\275h<\006>y\007Y=m\023\262<\343\002\275\273\366\311\320\2737W\231<\261/\372=H\3208\275i\027h\275\021\026\315\274\343\341\013<1\256k=5B,=\247R\345\274h\204\202=\204\337\275<\026\334>\275\037\225s;\t\014#=#^\323\274?}\222<h6m=\346\202.\275^R\254;\265\270\n\273\233p\310\274\331\257V=\325\231p\274\236\"{\274\025;\203\275.\373\271\275\276\304\032=\272H(=\317\350\206\275\016\214\2269j\233\265\272\357\000\261;\257\201\327\273*DC=\232\3439\275/\210\023\275\273\030\232\273:\345\200\273\343l\352\274\231\r\r\274=y{\275n\262+<\357\323l;\321\346\237\276\034?\377;\000\212\205:\003\304\245<\225\322\302\275\352g\024\275\005\270\343\275\313C\000;D\230\255;\234\2233=\333\353\010>\245\372\257<Rs\003>\ni$\276\363\302q=\320\360\230\274\302\254\223\275\311\220<\275H\373s\274\220\376\205<p\016\267\273\0364\271;\367\357h\275T\326\356\274y\032L\275\n\357J=%\367\245\274\332\322\036<\323BA\274\266\336\276<\302\027 =h\\$=\346\314\\\275\212.\007\275\357\320\213\275\207\315\256<rj\016\275\340,T<c\035A\275\217\026X<\0263\000\274v\323\275\2753\233#\275\001\236\226;\326\350\325\2756,\227\276\350\312\225\274\323s+:\'s\257\274\016.0=\2625L\2742\374\231\274i\201\014<\3024,<\367N\232;d0\214\275\335\375\003=\214_@\275\342\2065\274<\200\214\275\237=n<<\222v\274\036\361T\274\3136T;\337\022\231\275\322\3548\275\374y\\<\024G\017<yv5=\246()\275\246\032\375\275\202\370\320\272\0300n\274O,\021=\246\236\017=\203]\241\272\263\265\207\274\2344\341\275\010\326c=u\331\314\274\275\274\274\275}\234\217\275=;u\275\257\032\307\274\355\347\277\274Y\022\230\275n\245\214\272\266\334\002\276k\266\370\275\214\236\347\275\311\t[\275m\006\025=\010\2338=\017\257\301<tC\027\275C\242N\274s\355\205\275@\021W=\005\000\027\276?\032C;\322\206\355\275\347\357\213<\r\224v\275#\260\177;\331\221f;\256\310\355=`\333\035>}\236\034\274\303\033\301\2742(\303\275\027\2042\275\255\276\235\273\237\036P=eb^\275\314\034\212<\211\314$<\311\250\223<?\314\254\274\"\267h\275m\265\204=:S+=bp\241\275\337\371C\275\270\340\243\275V\203Z<Q\222\255=\300\271)\275,\020\030<lZ\246\274\352\253\005\275>\364i=dZ\377\274\367\021\036\276\016\354!<\r\3758;\335\255);\006\356&\273\230 \'=\200x\220=\237\336\236\275[\034\'\275z;\010\276a\210\314\274~D\243<\250\245(\275@\201\206\276$\335\223<4\3112\275\3152\333;\0335\255<\322\336\223=Q\222\237\274\224\224\225\275\225*\217;~V\272\275\345\245\267\275\334\256\326<P\331\000=\005W\322<\270\n\345<Q\351\'\276\262c.\274(#\230\276\250_\001\275!\310\005\276\206;\017;\237\352?=m\317\004<\375\003\342=\311u\021>Q\252\251\274K\027,\273c:F>\033;y\276\220\244\205\274VzK\274?\250C>\314\340\250\275\014\2554\274u\342\351\275\364jk\275\255\314\227\273\257\2044\2761\327\311\276\311\265\342\272\222\024\201<\261\"\020\274tKb\275L\366\372\275%\n\014>T2\322<A\211\336\275\030\312.\274\'\216\233>T\313\006>\375?\204=1\376\270\275\332\335\275=\244<\273<\024i\263\274RZ6\2761\237\210\274\375\361;>\3248\207\275O{z\276\211B\242\275\331\227s<\r<^\274\032hY?\315\316;=\315\314==u\312\013=\\\177\360>G\274_=\231_\323=\243\022\252>\013d`=\347m\351\274\3677\224<*a\373<u\247\006?\001\321]>\022\331\257<\276\217\215>UK\332;p1\316>\243\234\323>>%?\277\360N1<X\214\230\276%E\350< m1=\337\234\031<\365\232\217\275\260\\w=\030Q\020==\375\272=\251D6\276\351oc=\216&\212=N\334\216=\240h\202=qp\204\273a\030\363<J\267\201;\253*\371\273H\213\306<\202d\026\27633\222=W\334+\275\356$9\275dE\006\274\251W?=|\252\220\275T\344\252<`)\320\274.\203\364<O2\203\275q>)>\265\230\244\273\300\360\242=\316\266\324\275\326\247\226\275 \001\010;i\252\261;\311U\377\274P\3057\276\245G\007=fB\220\275\312\016\263\275\376\344\315\274g\257\302\275\253h\335=\352\330\366=\347\217\215:\252\036h=bCY\274\261\313\343\274^S\325\275tl\340=66o\275\202\354\327;\263\204\006=]\365J\275{\353\304\275M\232=<\036\324\000\275\376\016N\273\355\274\200\275\271\351\260<\211\255A>\371f)\275X\313\226\275\244E\200\275]\354\340\274\255%\334\273\346\307\332;\302\210w<Z\003\253\272\207\360Y\275\242\2618=a\313\230\276\327!\262<U\2048\275\004\333\375\274\020\rf\273\312l\357\273\367\244\021\274$~u\274\036\320v\275Q\263)\276\r\001\205<\217\221I\275\220\337\264\275\204v*<4T\243<Z\276\234\275s\345\300<\243\253h\275\221\202Y\274\233\031}<\356K\226\274q\223\213\275\275\351Y\275\352\377!\275U\260:;\214\317\\<\003.\242;\333%\237<\320L2=\'P\020\276\314\3250=\356c\036>\351\230\232\276\026\272\211\275\274\224\244\275f\346\221\276\210\212\274\275k\232\231<\237\351\325\274\236\307\016\275x\022\202\275\265\013\006\276,3\n\2761\302b\275h\227\204\275\207`\222\274\277\024\332<\230d\307\275\t2%=\264w\026\275`Bh=\240Z\014\275W\177\232=7\306\207\275\252\202\n\277\013\300\324<\324\222[<H\034\240\275<\223\273;\306\332\216;\3646N\275\023=\t<4\222\241\274H+\343=\233Z\003\276\317\0222<n\227\023=9!%<}\024\211\274\205G\224<\217:\347;9\272_<\034\t\323\274\273*W>\310\261\313;\275+\213\275N\337\200\2759\262v\275\343\017A=\367?H\276)\224R\275\203A\201\275&\352.=\021\262\361\275\357\227==\020\007\207=pQz;\226bj\274\006\371 <\'T\306\275G\322*<\006\020\336\272\314iX\274\222\351\333=7^T<\315Q\020>I\307<\276\262\316\234\275\245\0041=T\n\231\275_\272\302\275/\214><p\251n\275\261\267\214\273l\221\n\275l!\341\275\364V\317=\254\276\337<G\236\000\275\204o\224\275\256\274\321\273\253}b\275\001\336\311\274f\021\223\274\000tt=\201\230,\275\231\323\177\274qK\271\274\375\262>\275\375\370\261\275\305\235Z\276\036x\026\275\364\347\304;\354\035\376:iA\314\272\034L\t>\'\340\304\271\356{1<\222\204\370\275P\226\220={\371\021\275C\r\270\2751\214\327\275\035\377/\273\3125\030\274\351t\332;:(1=C]\251\273I\235\021\275\202\rl\275\244e\355<IR\';?|&\275rL\273<\370(\300\274Q\275\247;MZ\374\274\321\022\323\275\321\376\300\274q\356\020\274(T\321<\031\261\301\275h9\271\274n\256\004\275\373cv\273\0161\016;p\201\202\273w5\032=\224\220\326\275\271\376\300\274\217R\345\275\346\321\332\274M\252\350\272\272\017\320=\" h\275\354,\266:\252\237\275;\213Z\0228\306qg=V[\014\275z\363\260\275\223\032\256\275OhJ\275\311\210=\275|\213\355\274\246#\215\274\\\235\242\274t\024h=\362h\262;\2430\220<\277\242\\\273<c \272>\365\217\274K2\014\275\250\244)\275\307\233\310\275%H\006:\202\316\235;\261L\251=h<Z\276\345\350\237;y\330\266>\330\231\354\275A\014\021=\020\351\335\274\024\215i=6\377i\275\036\255/<\344j^<\376\002E=L\234\224\275\254\271\356\274EI\231=~\023M\275\320Nw\274TH\367;\201\353\261\275\303\351\327\275X\005\274=\336\346\203=\246\320;=\230\307-\2755\365\364\274\251&\002\274\375Iv\275h\354\t<4nu\275\213]\005\276X\247\226;\357\332\306\273\337t3=\356\2554\276!\'\237\275\n\221\032\275\272\226\310\276*\r\200\275A\030\336\273\r\301\236\273\274\303\002\275v:\257<\"\246\313\273\375W{<H\321b=\217H\267\275S5\026>\rWv\275w\326\231\274\241\004\326\273~\210\305\275\032\271u\276\201~\023=JDN\275XI\213\275;qF\275\203\226/\276\272l\237<\317M\277\276t\271C\2741.\014\276\277\032\224<W^w\272\177\263\017;i\327\252\274\030B\245<\374%\225=\001\252\310<\211\271\355\275p\216F=\260\261\007\273y_C=\355J\207\275z\323\226\274\021\032\354\273\025v\252;\306\214\303\275\350\231\020\275\301\275\364\2752/\004=\273\240:\275\205/\262=\255\224\037\273N\273V=B\226\246\275\363av=!x\317\274\321\243\202;\233\234\205\271\256\343\274\274\216\247\314:\333\304\221<\320\031\253\275\372\246\254=f\r\316\272S\230?;|\2014<\006\240\001<\301\021\374\275\250\354\346\272\267\237\324:\353g\021=\205\323\200=5<\370\275`\255\347=\310\000\253\274\000^\203\275T\006z9x\362M\274\363\010\362\275\354\335i=,\3605=\226S\336\273mw\211\274&\314\356<H\026*<\366\274\212=CI\360\274\005f\274\272i\2326\273.\270-\274A\221\340\275\260\340\025\274\027\357\321=\376\327\303\276\261\231t\275\006\201Q\273\360\270\316\272x\224K\275\2633\277\275\r\215\213=\315\3406\276k\327v\274\346\0038\274\350\237\217=/\375\311\275\207\005g=A$\036\275>\020\205<\271R\232<\021\225\013=O\240\370\275\304m\311\275\260\275x=I\325\233;\005D\220\275\315^j\275\322w\005=r\005\022\275l\354\204=];\324\274\261\313\305<\237\023\246=\001\001\271\273j`\024>\0332\031<H\031\222;\177\222\204=U\341-;*\0375?\340\213\242\276+\325\270\276\0105\020\275((#\300\272F&\276)c\237\275\014a>\275\212\355\004>4p\255;[\010I>h\352h\274\251R\025? o\340;\254\237\314?\252\200\310>\334\224\226\275X\242~\274\342\361\036\274\344\206Y=\007\377\010\300\326\223\\\2779\236\262\274\242\330\370\277\353\227P=\021\205\274?\372[\367>\r\224\263>\316\035\026>\004\231\243\276>\244\226=\267\355r\276\271\222\010?g,\355\276\014&|\277vU\251\274@x-\276\357\320\220\275T\031\003<t\274\206\275\245\034\216?\337\005\026\275GE\255=\313\247l\275\366\313D?\313w\215;\236\006z>\236\334,?\203\342C\276\272#\n=8\373\204\274\315~\321<\247\n\264\277(<\200\277\263f\223\275`1\201\277e\306J=O>\245>\001\017\374>\020t\010\277\234E\022\275\n\215[=\240\230\222<\321\305\337<\221`#=<m,;\347\352\000=\221d\334<\n\372U=l\257\010\276O\276\r\275\245q\203\274p\247H\275\351L\347<\033\276\222<\206\310z<\231y\273=\273\356\352\275{6]\273\254\312\020>\377\344\305\2743*\237\275\343\341y\275{T\262\274\361C@=\231I\202\275\377\240\302\275\256b\314;s\245\266\275n\336j<}e\334\275A\330H=\202\265\201\275\335\304\250=\320\362\213\275(\270\201<0\271\351\273\030\372\304>\355\2530>\023\241\205\274r,\331\274\nZ\216\276\203\337e=-\257\r:_\037\271\275k\230\344\275\211\243\224\275}\247x=\\\316\231\275\215\234\264\275e\212\300=\336\276\004\275\343\'\316\274\277\246p;x\325\246\275\253\232\275\275\025\225\226>\315\005\204=\334\212x\275>\014\224\275\276\254.\275\312*\004\274\360wn>\201}\307\276\305Y\275\274\204\3629>\004\t\262\275nA\325=\270\004\271\275\243\365\223\275\221\332/>\274\024i\275\315\350S=?\210\\\275\013\177\235=\277\217\371<\034)$\276\360P\202=\253\255b\274q\247U\276\236\035\365\275}z\260\274\240\007\270;Uo\357\2749\300\032\276\3612\273<\211Xc\275\240\243\017\275S+\254>\301\007\"\276\352\262\317\275\017<\">\252u\364\274\211+\354\275D \272\276f\340!\276T\251\211=\317\010\024\276\205/\250\275\334S\017>%\322\'?/\273\272=\224\'\216\274u\274\226\275\207vK\276\3643Y\276\264yM<\247/E<\246\263\262>on\204\274w\376\316=K\252X=P,\217>\231\230\350<\022\014\235>\320qX=\177T\325<\327\245\n<\005k\333\274D\203\223\275\224\253\234>\353\306\013=I4\273\274\255\335\212>H\212\277\272\206\265c\2771\017\304=d,\325\275\3663~\275\244C\203>t\344\321\274\313\257\345=\214\314\356;\007&\252\275^\020->~O\'\275\037\242\013\276\207\324\205\275\021|\370;\267\332\207\275\020\233\362=\246c\333=\351\312\214=\262\276&;\241\312\031=O\334W\274\307\2543>\354\277\375\274\r2\025\274\356!;\275\247\372\274<\214J\227\275\021C\330=\231S\251\275\231\312\020\275\036\216\305=;\036O<\021\350\205\275\231\"\300<w\325\353<\201\344\016\275\364\2238>\036\257\200\273\331\001\314:\315\200[\274\254\013\022=\365o\">|l\275<l\354N>\323A\241<T\303@=\2033P:\234\177v=!8k=\366\322\007=D\314Y\276k\t\333<,m\365\274\323&\223\275\320>\213=|\337\020\275;\223&\275d\275\235<\320\314M<v\034\207>,S\t=\224K\202\275\225#\355=\374\031g=a\373\036\275R\256\327=\2367b\274z\365\027=\005\225\245>\360yM<\366\036\317<\021pt;G\260\235\275\230;\373<\224\312Y=\313\350\322<<\223\317\273\311\223E\275\217\216\254\274\303\246\365<\007\311\t>z\242\034;\033\220;\275M\370\177;\306%^\275\263\177@\276\325\007*=\252\326\033=\344\250F\275\255\356n\275z\3407\275\324u\216=r\224$\275\006\035]\275pC\243\274J\237\205\273\001\355\323\274G\242\354\273\237\346&\2743hJ=\004U\241\274\374\360W=\360\252\205\273\223\307\";\251\274\345;0\307\331<y\301\244\275\234O\220\275x\201x\276\245\n\001=,v\227\275ej\255=\204Ru=M\2643\275\276v\365\274\372\254W;\230$w=\365\n\273\275*c\247:\340E\230:\n\262o\275\r\036\222\275\032\245\023<\322\263\340\275\224\370\"\275\377\311\234=\333<6\273\260+\245=\254\267d\275\361\275\252=+\274\231;?z\333<p5\022>\261\215\233=\021\2278;03w\272\242\3706=\177N:=I\363\213=|\252\001\277\236\333\022\275Y\177\206=-\270B\275\025\207*<\247\017\217<\323\307\264\274U\230\352<\267\"\n\275\331\222\000=]\031\265\274\307R\210>\236\371\n<\363c6\275Z\217J\273\210\010\014\275\302\2268<\223\333\345\274\005\300\251\275j\202\207=T\351\232\2758\303x=m\302\213\276\372B8>\230\201\022=-ng\275N\000F\274\025\2231;\237g\013=P]\025>\340\235\233=\253p\262\274g\003]\276\312z\006\276m\301A\274\013f\301\274\017I\331=P\030\300\275*?\371<\221\251\200\275\030\031\220\275B\031\213\274\n\370\005\275\004\274v\276\263o\262<Rh\252\275\021\202\215=\253e\275\275P+A>~./>%\237\000\275\351\260\017=\223W \275H\235\365=\332\341\306\275\221\251m=\252\277\211\275=zV<\227\331\010=\2314\206\273\006\023R:\214E\344;\346\360\034\276I\201\331\274k\351\224=Hs\216\275\034\225r\274\027\035d=\366d\000\276\250b\003\276\000~\337; \212\346;\326\347\340\274\036]\214\274\304\014\230\274\333\037\311=s\237W=\247\360\016\274\333I\203\274\374\224d\275\311\007n\274\256\\\035<\202\222$\275\273\222<\274\240\017\352\274\006t\317;\312\254\022\275\022{K<\310\246\247\274\244\301\024\274\032\274\204\275F\273\2069=o\230:\3764\004=\367\343\256\273\243\241\214\275nY\030=\343M\362\275\021\221\345\271\204\266%\275\013\224%\275\343\027\360=\030\031 <\225H\230\273o\347\017<n\177\226=/\207m<\302}\300=(A\274\273\036\371\226=\3326\212=\216\030\252\274\334\314\276=\224\205o=\330\270\210=\231\013\323;\322f\264\274\237FO<\360\260<=a\366\367;P5 =xl\001\274qe\031=\001\204\006\271{\032m<\305\326\"\275m\367\304\275\210\375\250;\237\347<>g(\314\275=\362H<\210\230\243\275\010\003\202;\355\334\\<\006\352\206\271\020\373E\274\272\276\260\274Qn0\275E\370u\275\377\340O<aO\035=\337,\036\274\323w\377\274\236\032\205<\307\023\010\276\200\303\200<\254\311S=\277\314d\274T2\235<\356?\240\274l\375\346=\216p\227\274\251 V:\2361\206\274k?Y<\223\377!\274I\310\215;j\220\000:<\003\024\276zz\261;\243i\000\275\td\006\276l[a=>K\233<]\202\021=x\252%\275\214iW\273{\347C<\000\244><\225\331l=\337\273\307\275\334\304\305;\357\034\216\275\304\2169\275\264}[=\001\307\305\274\021\t/\275\342\373Y<\030\026\240<FD\031\275\340H\200\275\300&\211\274e\340\035=\351\2669\274\006\231\200\275C~\023>\372k\017<\353J\270\272\357R\211<\375\354\346\275\355\277s\275Y\\\271\274=\252\240>\334g}\276\340\354\363;k\t\217=nY\332<\272{O=\247\276\332\273\365\210\322\274\307{\371\272\343\034(=\212%\230=\337\376\346>`\332D;O\310\004=\036\220\326\275\033(\034\275\'\376\'\276r\035\212\275W\030\267\275\004\336F\2753l\213=\245\265\226\274:\310\274\275\272\0376\275C%G<\342\253\273\275@\206\275\275\037\023\003\273\217\037\303\273.\215\230\274\036\365\230\276\035\237.=\266\'\374;\212\013 =\311\317S=\322\324\200=\022\322\224=\236\221\265\275+<\027<\021\246\301\274\004\312\351\274\343\324D=\244+\035\275\'%0>\35054<\374\344_\275[\210\313<\215r\271\275)!.\275\t\037\237\274\263s\336<;\374,\275\356_\221=\247\336\002=HV2<\002\226Z>P\303\017=G\213/\275\312&\214=\013\251\230\273\244\200\021<r\247\261\275.\312\217\274M<\"=\276\307\213\275\236\r\304\275\r\000\370<\207c\223\274\372\021]\276S\317\"\275\207\256\257<\006\233\320<q&Z\275\322\n\027=1s_\274\211\353\310\275\341\2531\275\023y\337\274\037\247\226\275\243\203\007\275\021\262\035>\345\370\333\2755\301\216\275\203\244|=\242jP\275\255\365$=ql\326<\010\265b>\331\252\225\274\237\330 \276m\222\025\275b\036\211<i\322\207;\000 \300\274\232\220T<\346r\206<\333\314\217\275\224\336h\276\226\346\265\274\252\325\230=K4C\275ekT=u\\\"\274)y)\275\302 \271;n\242e\275\304\322\036=\366\266\316=\333\376o=2\256\031\274c\001\317<\230U\201=\267\227\007\275\237\343\350\275\242\rb\274\334\035\224\274\264\271\002\276\371\177\021\275\227\231\307\275e)\241\273\331i0\275n\352\337\275\352\005\240\274\225\371\370\272\277\234\276\270\236$7=\225\023\371<\351<x\275\211L\227<\221\0240\276&\307\252<\032A\334\274#\340n\275r\027\264<?\357\032\273~F\315\274G!W\274\344\003\203\274\260\326\351\274Q \267\272\234_G;\017\024\315=\325I\241:J~8=@\371z\274\037\3172=j\216\205<\256\264\001=\'\007\230:k\330\002=\235\316\232\274\350}\332;\243_0=\204\357\342<\221j\262=\032\262`;3\271\006\271.\313*\275\231\224-=M\223\225\274\201\231m\274\257\014\370\275b\304\021=i\312&=\357<\347\274\022\321\207<\201$\237<\220{\304\275\0163\316\273\253\027\202\275\307\360\025\275\202\347\010>\244f\007\276\016\273\323\274(W\005\275\260\210\351\272,\201\230<\257\273,\274Fu\274\273\007\246\231<\247Jk=\350\345\301<\334R\205\274\242\310\227=\355f\276<U\255\320\275\224\266\307<T`\246\272\370P\340\272\036o\024\275\276o$\275]q\231\275\254\364#\276\225\343\034\276Cw\275\274\0131\"=&\007\250\274\021\245\260\275\371\227\345\273 \341O\275\006\302\247<\246\335\217\274\201\371\204=\327/\305<v\216\t\275\2459E\275\224A\001\275\022r\242\274\211T\002>\357\243&\275:7\301\273\016Y\230<!:\217\275\332\242\203<\225\206\335\274\307#\273<(\'I\275z\346\224\274\266\341\255\275\304y\223:\257<M\273/nC\274\311\252\235<\355\216\242=d\016\027=z\302\235\276A\332\264<\373\"\246\275\'\374\206=W\026c=\364\307\265\275\311\264\243=$e\264<\232u\305\272\322\300\021>\372\034\250=\354\217\t\275\246\244\211\275\352\350\024\275~\253c=\004\344\302<!\200U\273\231\342\014\274\360\224\242<\033\331\213\275\305\021I=\253\334\010=\213\233\306=a-\322\275\325q\035>;\035\020\275\277\336\315:\205\032;;\003\252\211<\325\315\265=/\367\234\275\356\332\323\271\037\212\244\276\204a\023\275\215\t\221=h.\266<$\177\225\275\004<\245<\366\301\336<\345~P<P\221`\275vZ\376=\3719\241=Px\031=\276\333E\274\327O\367\273\'d\231\275\236\'7=\352\265B;\300!\373<\334b\243\273<\3169<-\212\305<\377}L\275\261\226O=\312\215\250\274\tQ\246=\363\315`<\005\207\220\273\260xD;\332\013\331\271\205)&\275\313e2=\272\257\212==\017\205=u\233\002:\265\333w\275\362\035\201\275\037\333\335<\035>\361<\005\370&\274`q\230\273\264\203\211=,\032F\275\360\231t=\250\3467<!\204\346=\351\204^=\204.\r=^\314\025<#\303\255\273\313\227l\275`\233\251\274\323]\305=\307\274\365<\013b\226\275G\td=\365hC=\2329t\275\331\346l\275S\222\001\273\206}\004\274wU\032=\314\214x\276e\237\025\275Z\351\035\2764\262y\276fh\224\2756\036&\275^\365\215\275\211\247\221;\353\366\013=\375\034_=w\252E=\027s)=\346\"_;UhY\276X\334\304\274\271\3625;@\303\241=\211fK\274\'Ot>b\315\037<$h\202\275\235\324A<\033\240\320<\316\351\334=u\241F\276\344;\016<t\244\340\274\221\332?\275\302\250X=\351\261\277\274\324(J;Ag\230<3e(>8<\224\275\211\354\276=\253\226\202\275\024)\232\273\234g\327\274\310)]\275\250v\'=\374\022P<\222\324&\274\031\266E<\3417\346<\236\3564<\346\007\303=\220\363\t\275\0052p=\353\205\033\274\256\227I<^\203b\275\236G1=)\320u\274\202\024\327\273\201\257\201<\247E\354\274\353\2123\276\204;\025\2766\257b\274-\241\020=\005\240\207\274\366]\253\271\244\302\342=a.J>\316\236\307>\351\201\202\275\231L:>\0342.\275\245|c=\246n\t\275\366\200\033\276\265B4=9(\371<9\377\264=8\366,=n\323O\275\224C\351\276\204\270\344=\2475\234\275\307\014\237\272\327\375\022>\333t\246:\352/\332=O\013\250>\347\206y98\007g=\006\374[=\306\316\365:u\264\276>\030\0046>C\353y=\233\353d\277\374\326V=\362pe=5\325\013=\002\313\323\275V=\315\275\301-Q<\231t<\276\310\213\272\276\200\251\223=V\027\000\275\210\271\036\276W\342\363\275\332\242\r\276N\265\017>y\232x\275x\222\023\275\237>o=;\307U\276\314\276\373\274h\001\201\275l\032\006\276\222\345\313\275\332\246V\276\375=\257\276:BQ=\323M\027\275\205\323\200\275w\334\257\275@G\036\277\374\371A\275\3134\020\276Zv\272\276\034=\207\273\2354\343<R\031\343:\270\270\220\274m\330\243\273]\371y\275M\201S;\372\302\344\275\266\376\243\273\255\"\340<C{\341;\307\322\376<N\3733;\311\362\242\274\232\372\227\273\223\353\271=\340\270x;\266\027t\274\262C\244\275\274n\r=\323;+\274\245\314$=\223lo\275\224\216g\273~\346r\2749\317)\274))5\275\330v\366:1\032\302\273\260w|\273\210l\214\274\027\324z\272 \270\233\275\202\234:\2734\0133;q\025Y=\004\300\246\275$Z\314\275\tn\234>\302\016\220\275<\312\207;\026\301.;\322\017U>|F\371<v\207==\242\207q>\207\360^<\375\361%=\331\363\227=H\033f\275\\g(8f7\034\275\320kB\274\350\241\026=*pW\271l%\270=$\222\251\275\376\241\356\273h\266\316<\275\215\r\2753t\247\275\362nJ\275\225\242\304\273\032bG\276\274?\360;\316\0245\273\0201\037\274\177(\367\275B\340\037\275\353\310\267\271\266\332\014\275.\177x\276\362K\265\274fLr\2754\r\225\275\376z\203\275\252HA<\037\254\234\2751!\317\274\2049\204=\250<\"\276\365hH=\321\204\023<C\267u\275b\006m\274\3043\244\273:=\020\274k;\352\274a\330\245\274\266\312\277\274\321\310+\275\345\307\324<\360),\275 \237+=Tl;\274e \261\275\n\367\003=,\256\330\273\242h\210\273\003\311b\275\223\241:\276[\344\\=\211`\001\276\365\372\372\275\235F\327<\337hR\275\371\257\335=\3316\314<\014\340h<\205L\354<\017\341\330\274\275\254p\275m?\224=Pv\350\275\355\016\016\274)&\232=\320=,=\226}-=8Q\207=\372G\243\275\231\246\035=\331\365\t=W\245\023=\230\340y=\203\330?=!}\260\275\347\241_=\324\004\226=\363+|=`\257\030;x\352H<\006\305\355=\212\324)=E(\334\274\261\n\014\275\t\242\230\276g\341\014=\036\014\025\274+|\274<\022\375\210\275\220G\014=V\271F=\004\247I=*\003\350\275v\'\271>\261\335\371\275\300\021\317\273@O\242\274\372\211\313\275\313\375\270<\212\361\247\273[s)\275?U\367\275\300&\305\275n\013d\273\247\030\001\275\324v\300\275\323\016\r=\0030|\275\3467\260=\036*\025=&K\223:2\232M\271%\353=;\224#@=a]\001;\005\361\227\275\322\0348\275N\335\256\275\360Y\321\274s\320t=\034\350\037\274\374\363\372\274\023p\362;\242\371\323;\263\341v=W\306\224<\335\321\224\275)\314[\274\200\004\251\275\341%!\275\307\324m=b:\227;\301\357\317<\341\036\353\273o\214\021;\033?\273:\320d\215\274I\2706<w\206\r\275\316\250&=\032\245\247=\270\010\000>\037\263_:\305\233\202>\237\227\337<:\013H\276\002\3010\274R\230\370=\307\010r\276\177\3027\275\344,C\2749O\371=zeA\275\272\266f\275\021\317J\275PW\261\275\212\232\222=N\303\210\276k\246\016\277\315\361\247=\020Z\321\275`7\377\275Z\263\235\275\275\330\004\275\222\005\010>[\251\333<\r=\010\276P\324;>\020*\245\275\037A\242>0\263\225\276[\032\200\272\3232`>\315e\323\275\270Pl\275R\021/\273a\261{\2741P\360\275\322\\S=\023\251w\276\3303\241\275\243\235\230\273\231\271\301<\350\376\243\275\"/\203<\261w@\274rG\277<@\352;<\016\'\341\275Y\254\247=j\354\372\275\372\267\354<\236\275\256\274\213\016\215<\204i\342;8@\017>\214\364\267\273\275\272\206\274\233\321/\274\201\355\030;\203\271\212\274\"\327r\276\274=\016\275\374\245\033=\023p\022=\303R;\275I\020\3019Q\314\016\274N\264\003\272U\207\020\275\217z4\275\rt\216;\031O\203\276\n\245P=\377a\354\274\236l\316;\267\373\374<\r\366-\274\310\006\304\274n\025\213<y\361\376;\270\2362;\312L\014\274\214\327\211=]\353\032=\220\366\026=\003\320\215\275\212s\'<\277C\"\275\000NV\275\023R*=\300\337\317=\001X\362\273\240D\314>\031\302\303;2u\213=\3062d>\316_b<b\261_\272\264\320o\273\025\211\236;\237\317\272\275\365\330\333\275\372\010\365<\276#\205\276>\323\326<\270\261\311\274 \271m\274Ue\030\276\346|\203\2747rK<\357\247\220<)\216\237\275\330\270+=\030\217.<+42\274p\361^\274\260\303X\275\310\200==\254\317\373\273`\254\006=|\021\211\274IH\212<\356;\370\275\240H\346;ij\224\275\3407:=\370Iu\275\251\307\017>\n\010\273\275^\236\034;\324\347\274;\202\353\217=fZ\211=6\316\336\274F\255\227=Z\367\223\276\211z\303\274\372\\\251\275V\366/\275\330\270|\275\211b\026\274\311\246y=\332\336\002\274\350\251\021={\236\312<Mia\2751z\254\273\366\353j\274J\014o\275\366Q\261\275ZA\003\276W\210\330<\327\375\001<\017C\371\274sX\226\2755\337*\273U\343\323\273z\t\332\274\314\274\317\273\'1\263=_\300\235=W\260\221:\355\003-;\205d\275;\336\255\300<\000\t\n\275\264\363\004\275\340\300\264\2759L|\272\020\246\330<ejc\275\027\222\201\274.L\320;\362[\207=4mZ\274#\324k\275`@\010=\264++<\212\353m\275\263\333\224\275\365\177\240<\0308\n\275e\376-=\307\277b\274j\367\013=($G=\267\016\"\275[\355p<\016P\251\275\'t\275<\033\270\261<\253T\235\274\035EN=\253M\210;\376\n\3229\001D\346\274A\014>;<0e;\320\311\365\2748\277\030\276\032\0070=\360\007\240\275\370\030\370=\004\034\271\274\243\rq<\000\350\364\273\340\026S<\254\211*\275\265\326u=\267\332\336\274\353\206,\275*\231\225=V\366h=\365\016\205\275\227\252\"=U(\014\275\223\341\213\273LZ\311\27294\212=p\202\214<\256{\225<#\254\255<\242C\304=]e\r=U\025\333\273}\220\263\272\327\032m\272Y\t\327\274\002<C=\244\247R\275z\006\033;{\304\344\274\252\303\322;\253x\367\274_F\207=\274\361\200\275\340\257\253\273Kq);\221I6;\003\245\226\275\306\273\306<\307Y\201\275\250\220b<\353\345/\275\033\001\326\275C\203\200\275\265h\032<\356J3\275\341\002\334<\222\262\341\273\257@\017\276\373\252.<\204\223n\272%\211\252;\333\337\023\276#\207_\2752\274\n\275\272\301\035\2729}G;\255\023\'=\2300\266\275\272\276g=\245\274\343=9\256T\274\244\304n\274\262\013\231\275W\352o=\352\361\354\274a\\.;>{z=\2142!;x.,\275%y\227<\336v?\275\335\304\277\275\026\337_\273\225\022s\275\304/e\275\006\224$=\333\215D=\274\303Z=\\\'m\274\301\270\026<\256\363\254<\364\215\260=m$\255<y\315\024;J\030+\275\213\224\355\275\253\257\333\273\374\346K:\264|\312= ui\275\306\263\340\274Jw\302\274\262\"\252\276Q\217\351<l\222\177;\230\355\023>\333\307\320\274\\\316\004=\3267q;\2625\256<f\025\376\273\255\213\006:\347\351\223\275D\261\324\271\246\232\214\275!\211Y\275\227\323\223\274a\230\377;\267\201\255\274\230A\376\274\311\320\262\274\"^\247\275\375u\301<\020\362\262=f\225:=^O\245\275JX\021<\302C$=\303\001\263\273\277\330\241;U\330\250<\023d\023<\315\t%\275.\217\006\276\"\313\255\275\261\215\304\275j\321T\275\201\240\202\275[a6\275\3233\333\274\335\275\031\271\245I\225<\033-\267<aA\251\275\264\342D=\374J\222\274\356\225\014\275\t\240\006\273\352\255\\=#.\n=\231\\\000=\326\003\262\275\004\320c\274\276f\\\275\002k\315\273\267\233\207<\256\272\307;Ya\002\276\237\022\360\275\263$\261\275\233\361\365:\337\345u:\203\352T=\014\205\333\275\"\006\005\275\001x\020<\232:\232\2759>\253<\240=\364\272X\200\333\274z\305\001\275q\035\360\272I\351L;+\023[<G\253\007\270\374\235\304\275U\215\324\2733\314\014=TS\337\274\037\345\343\274v\204\237\274rE\202=\034K\225=n\r\236=\323^\273:u\006\241\275\231\336\252\273\334\357\376<\372\324\004\273\215\021\342\275\271\311\'\275\304\350\273\274\330\260\3319\035\373\234\273^\271`\275\003\247\232\276\004\\\215\275\000\0330\276\025\226\376\275U@\274\275\275\033\274\275|\367\005>\322\260\343\275\264\372\341\274\037\305\240;\336~\307:Q\203\';+\261&\275ii\000\276\336F|\274C\311\212\275\271\021$\275\320,G\275\030l\247;\3575z\275\313\314\235\275\251\324\355\274F\326\030\275\312H\350<\262Q\336=\322.\246=\314\230Y\276F[\000\275\277\350{<\030t\305\273ny\243<I\317\207<\000\365\001\273\373c\274\274Z\302\234=\206B\235\276K\327\213\275\372Z\022<\322\2740=\317;\205\275-\353\250<\371\320\031<`\313\211:\354\r>\275\262BY\275\3438\035>\351\324\265\274\2179C\274\027)6\274\356\377z\275\312\031\277\275\327\030K>,\233\257\274N\2764<\027y\216\275\021a\036\276u\032\233\276\207\340\033\276\223\r+\275\204>\232\275\255z\335<~\266\014<\363\311\272=o\375b>&?\010?\005\253\241\274\177\272\212\276gl\006\276\230\034W<??\256<\244\261\306\276\375\r\244<e{\207\276\357?\003\276+n\027\276\027\220\303\275*\210\347\276\362\337o\276\267\337\366\274\301\205\315\274\030\331$=s\355\373;ki/\276\320\246R\276\332\003\206=Bq\030==\0203=q:4>w\376\212?r.>\276\371\004\016=\277\360\345?=\300\343\273\306\301\026\275\r\232);\201Fr=\025\367w>\361\017C\275\227\220N>\245C=\276#\236$=\340\035r\274z\367\323\275}\255\240=\314\227$\274\200\027\224\274`\0264\274N\206\234\275F\206\237\275S\306\004>\205\351\001=\363\t4\276\351\246S\274_!K=\204\227\234\275\261\177\257=\\wJ=\204\353\326:\253/\005\275\325G\022\275T\203\374\273x\031G=\000\340\230;\243\361\251\275\177\236\232\275\026\232\304:\342\253\252\273\000\'\346<1yz\274_\\\242\275n\320\353\275\323\217 \276\206\256s=\232\2177\275\356\215j<\277C\221<\353\357\233<(\344T=iH\265:m\3462=Yc\311\275S\356m\274F\275y\275\217\376\261;,\315H\275J\200\343<;\221\230<\241\350\341<\222M6=\016\372\214<\346\017q\275\337&Y\275\335\260\230\276\340\270X\275\024*c\275\254;\215<[\346\247=\240Y2805\367\271D\307\223;pq\005=\345r\014\274Q!\033=\236\340\256\276\326=\323<\207;\272\275\351\232\235\275\204~\317<\231\323\333;\263\376\r;\257\274\251\274_Y2=-\306F\276\321\261\234;\263\036\351<&\347\265<\217\260\313\275\220\025\256\274?\253\232\275Z\343u\273\3753\234\275\3620F\274C\263\250\275\\Hx;<8\302\274\316\016\261\274\305\222\317\275\014U\262\274\377$\301\275\364\336e\273j~\246\273V=\244\274e\2655;\007\333`\275\\\251\315=\370\205\027\276\270\"\251;)\035\006\275\335\255\030=e\031\236\274\001qK={\235\256\274\320V\224;nP\262\275F\243\360\275\324+O=\221~j<\306\244l=\217\373\210<\305s\r\275\003l\251\274j\\\223\275P1\242;\362\237c\274\033a\022;\007\273\202;\237\304\231\275AXD\276#\3610\275\027\346\215\276\351\353\t=\003C\207\272>\026\321\273\360\377\224\275}\361\006<&\\9;Z\005\017\2763\257\232\276\177\354]={\006G\275DU\037\276\373\233\256\275\367&\201\275\031\212\027\2752(\271<\214\212\263<\232\250\335\275\244\214\313=\"\2312=#\223\230\275\017\351\226\274\010\240\375\274D\232\352\274\024\3427=\370\316\323\274\271\311S\273j\017{<\264%\020\274\343<U=o\220p\275{u\360\275\"\3566=\277\276\224\275\004\030\n\274<\307\022\274\302\010\2709\002\357\003\276a,\344\274O\267\244=9\334\316\276\000 \206\275N\202\260\275O8~=B<2=\217\212\020=P\034\211<\r\000\303<iCQ\275\373\231\023>\245\276\262\275\274\322\216<H07\275\210\261&=\353)\214=\376\246A=\277\372\335:r\016@\271\344\350[\274-\316\242\274\3430\302<\260X\367=\023@t=Oq\200\274\243\017\340\275\006!\232=[\203\317\272\177\307\207\272\212\217\247;Y\030\215\274\004\000\226<\377\017q<\360\212\245\275\206\014\232\2759\360\310\2748V\031\275:}\230\274\264\337\230\271\030\272\373:\322D\002<Z\372\250\274\t\005a\274\367\305\354;\250\352\246\2751\376\310\274\020\177F\274U\325\026\275.\'\365\273\371U\026<\355\201\302:\374\245\033\274\365r\241<k\023\315\272+\220\014\274\210_0\274\033\213#<M\325\017\275\235\010\022\275z\273\2039\274]\216\272\346\252\000\275\006\245\n\275\021\310\323\274n\376/;\036\250\021\276~g`<\242o\013\275\3320h=}Y\330;\003S\214;\245\336M<\006\251\n\274\213^c\274xd:<\366\275\272\275\314B\014\275\364\324\315\275*\265g<\0366\237\275\366{\240\273\310b\373\274,\327\214\274w0M\273S\006\204\275|\243\212:\262\262\376\274.\334\344\273\335H\264\2753\356\311<(\341\302<\032\027o\272YR\202;\226\277T\274\262\346\034=\3441\263\275\310c)>J\354e\276\245\022\316\274i~p\274\261\300\271<\035VU\274\033\357A=T\375\034\273c\346J\274\344\2367\274&H7>\232U\323=VH\322\274\337\303[\275\227\032\006\275\231\037\225\275h\302C\275IqX\274\357A\025==\361n\273\2014\235<[\217$<\371\376J>G\216\337<\215W\223\275\262wM\275yN\364\274\260\r\2069\372\371\371\272\035U\027\276wu9\276\360&9\275u\017\200=\317\315\034\276\030E\223\275\216\271\"\274A\200\265\275\216\001Z\275\037\275M=\'\246\200\276\242\313\024=m\007\300\275c?\364<\277v`>}Q[\274&\035\267\274\345R/=\210\304\246\275?\305N>tV\221;\351\377\013=Tn\311\272\230\246\373\274\233\224\207\274\363o\016\276\'\230\246= \r\014<*\n\022<\205?W\274T\274Z\273#b\234\272\342H\343\274\301\333\003\275d\255$=^\020W\274\013\303\326\276\274}_\275\'\031:;N#\330<C\2251=\253\330e<\252f\230\274\304\240b<\344\300\177<q\031S=\236-\266\275\005\021\201\275\303\212\022=\345\376\317;N\360$\275\345\255\335;\007\310\203\275\024\353\372\274\265\035S<\361C\232=`c\200<m\200r;z\272\026<\312X)\275?\363,=C\371\276\274|$u9\024\246\270\271f\271\337;\351i\032\275\244d\260\275\207/.=\245\222\366\275j\337p\274\247o\021=kk\245<\222\356\254\273\203g%<<S\016\274\356Q\237<65\210=\321\242\245\273\313bk\274}\001/\274!w<\274\217b.=T\231\235\275\334\025;<\226\274!=W6?\275\334\231\216:#\251D\2756\217\243\273/X+=B\030\206;\363\274\245<\014\314\346<\313\200\370<d-I\271Iz\202:\353DL<\321\211\003>\275\206\300\274\024\275\021\276\035\355\365\275\347\373\221<0\355\"\274\305\214/=\"$\004=\220\356\016;\0359\215\274\367\372\262<_\\\'=\236\002\014\276\032\227V<\262\264H=>\311p=\250\266\216\275F\275a\274\332R\035=Z\333\275\273\n\232$<9\253|<8\003:\275:\243\315\273\241nn=f}\306<\274\223\005\275\244\362&\277P\216;\275\033\210\';<=*;o\310\214>\251\256c>\024\r\345\273\031\332\037\277\3778{\276\356\374\240\275\017\354\236=K\365\260\276@\231C=\005\337\306\2743\025\241\276B\214\206=u \007\274\201\302\021?\221\323\227\276\007\260]<\270\214V=>\314\331<\\M\350<\030\373~>\303C\351=0\014\240=?N\325\276\214\316\233=#\360\327>\027\234\205\276\017\260\035?\351$\022\275\346\321\246?\337\304\200<\233\030\222\275\334\232\267=}\247\341>9W\326>\307\315\304\274o\025\246\276\316@]\274T\036\n\273)\026\272\275Vl%\277\nd\326=0s\030\274oc\365\276\030\017\016> \014F<u\233\363\274A\375\374\276\241N]\274m@\211<#d\275<\301.:\275]\347\010>\310\340q\275\365y\273<c\215\334\276\225HG=\'\020\\\276\003ID?G\260\331>\236\375\004=\313%\000@\316\210\215\274\352|t\275\351\200\021<>.\004>\326U\034;\244\256\245<\034\372\221>\242b\201\276N\213\237\275\300\252\320\273VwU>\333\372b=\214ba<Q\373\315\275\315\371O\275\236\260\376<f\305/\275x^\357=c\220\265\274\344\0303\275\371\267\001\276E\354~=\237\315\224\276\275F\032\274\345-\024\275\367\343\275=\241\036\275\275\306\354:\275\376\246%>Svx=}\277\030\276<\217\205\276\363\207\237\275F\333\252;\347\360\376;\003\344z\275\035\001:= \200\216\275=\203\233\275\222\376\242\276\010\010o\275\225\243^=\202\323*>\304\270\004\276\222N\034\276\362XU\274\312\3228\275\213~.\275\223\316\342>5\350\354=\334\016\316<{xf\274\345|3\275]\027X\275\262\007\232=_w\003>:\341#\275\255\017\022\276\033\027\267<H\201U\27647o>\177\206 \276U\377\221\275\034\276\022\276\360\3453\274\367\310o;s7\336<\320\234\315\275\315\332k\276\275\301\314\274]<\254=\006|\337<B\247\257<>0O=\025B\025?\322\214\327\274\366Y\020>\205\215\245=V\3624\275\242j4\275#o\316\273U\365\200\275X\353\333\275\311:B\274\317\256\205<\367x9\275\365Kl=\331\267a\276\271p\257\275\333\002\374\275\312\241w\275X\022\364\275\254\014b>?R\305\276Vc\302=Ti\221\276\n\254|<\035&6\275\323HO=U\207*>Y%q\275\010\216{\275\363`\324\274\340sj\276S\270\230\275%[\210\275\243F\304=\273\332\236=Ii1>\325\233k\276$n\203=\005{\031\275L0\032>eF7\276\224:\207=\311\253\023=r\374\271<\t8\373<hf\344=\240 .\275V\030\262\274\277\362\367<Uz\214\274\345\266\233>)E\212\275\034\356\216>y\336v\273\345&\267=\217\300d\274\206\227\020<\206\333\253\273\220\204\035\274\362&\020\2763\224\247\275~A\236=u\327c\275\365\214\253\274d\265J\275i\001\016:\257\304\276<[)\000<\237\332\323\2749\236\367<\334Sx\275\030\257\001=G_h<\307\014s\275\302\375\\\274\273\265\272<\256\026\215\275\237\375\230\275\266:S=\230\240\227\275%\035\360<\214\035\033\275\'.\357\274S\255\013=\243\200\326<\351~$\275S\205w\276\251\277\353\274\235\013\025;\247\353\321\273\366]&:\n\252\014\276\335\362\312;\3662\337<@jN\273?tp=|\212\030\275\340\236\266\275\365\217\341\274\245\005\335;\016\245\202\275\030\272\222\274)\210_\274X\216j\276\030\223]\275Z\201\236=\005\036\210\272\325\321P=\336\016\234\274\227\261\022\276@=2;%f]=\335\361\201\274\024W\303=\200\310\034;\270\\\025>\226=.\275\337\200\370=\037g\003\276+\322\353\270\364\360q\273\034\337;;\023\370\241<b\262;=\352 \337;C}9>\341\341\205=\021\237\001\274&\3378\275\246<\331==\031\206=.\344z\273eQ\360<*\310r<\212\016\005=,\210\026>\020\230\034\276\020D\220\275\374\254\370\274D\030\030=\244er=l,\362\272\244\3470\275Z\ty<\206\001);?\355\326<r6\004<U\320\n=\214[c=K\223\330<\266*\377=\330\273v\275jI\035:\240\335\226;\333w\007\275\326\006\303\274\211\216\373\273\367\360\010>\320\266V\276G\036\216=\306\213t=/\323\321;\010dO\275\346\256\254\274\017\316\003\274\310\202\232\273\204n\216\275v\213\001\275\231\304\005\274&\215%9\371\245H=\024\203\367<@\024\020<\026+ \276\303\'.\275T\006\233<^\313\234\274\323\331\026\275\030\036\344<\370B\323\273\307\'\204<]\254|\275(R\346\275\237\376V<\246\202\330\271_\007O<\351 *>\377$\222>\035\355u<\205\001U\276r\212\217\2768\254\247<\026\374\005\275A\027*>\324\334\203\274\003\242P=\341\345\033\275\351\360\330\274\261\333\323<\230\021\326=LS9\275f\034\262<\014.-=\001xY\275\267\357\"\274-\321\307;(\022&\274\203\030:\274\300\002\360<\3230T\275\314\233\336\274\203\376\351>0W\310=\220A\216\274<\260\341\276\247k\210\275\nnf;\026~\206<\321\304\177\275a\242\346\275\273\377\233\272\261\\\035\276z\333V\276\333\230\220\275f@\360\274zM\265\275\'\330\263\275\rG\204=v\330W\276\024\235G\275A\311\240\275\206t\303=D\345\024>\364\340\256\275\036\234\264\275+\273\231\275\034|\274<QU#<Led\275\325mb=\213t\334=\033\215\351\274\344\3571=W\274L\276\202\234\252\273\354\247*\275\300\271\007\276\177\031\230\274D\205\305;\317G\022\273\217\320\322;-@\323\273\2262\312\274\275.\037=g\303\217\276\r)h=c\364m\275B\266\033\275\230\241\321\272\016s\031<\303\003\332\273\363\337\026\274\326\241\263\275\337\306\271:F\0338=PO\215\275Y\320\220\275\270\3179\275\221\000\003=Y\312\320\271xOX\274L\001{=\337b/;\323D\203\274M%\270;\236Y\205<\300\307\232\272v\374h\275\362\271\345\273\"\232\350<\305\373a\271\264\300\274:\373\304\013<\276r2=\371w\027\275\226\2667=\211\353\225\276\022\255\216=\370\314\267<\247\316\350\274\2008.\275\356\312\215;\324\326\262\274\232d\321<\204yk<\345Z\272\274\346ig=7\006\001=\317\332\233\275U\031\337=\240\202\377\274\301\030\030=\216Wu=\201\371i<\235m\244:P\235\224<\375\257\207\274\274KX=57\001\2741(\267<\226)\377\275\303j\215\275\266\201E\272E\263\312;z\347H9r\341\361<\345d\200\275\206\203\266=\362\270O\276\244\233\302\274\255\223\375<U\206\001;{-\206=)\350\013=\274h\204;\235!\014:{\323\305<o\273\231\275\331G\241<\0312\336<\277u\260<\230\240^\275\350\220N\275\345\021%\275\215\212\321\274\211,f\275Nf\033<\236\"j=\261\021\002<\215V\217=\254t\036=\252\347\026=\372H\323\274\030:\255\275\365\025\014:\307__\272\257\024\341\273V\316o<\256\024\265<\324\002\331\274\274\363\307\274\005Fw=P\264W=\307\323\223\275c\222\322\274\304\315$\274\211\214\270\274i\020\341\273\026_\t\2751\"\036\276\216\3467=\262\241\006<\370TV\275\020\024\034\275\352\023v\275wU\254\274$\350\014\273\323\2068=\035\232\302:\272\345\031=~\025\016\274\202\315\244\275\344\352\031;\367\214!<\332B\220<\255K\360<=\241\316:\234K\235\273\375\002\213=\350\354\010\276^\013z\275f[F>\001\363\243\276\325\357n\275;\203\302:\027U\243\273\237F\246\275\274\233)\275\000\354P=\330\002\201<^\276\225\274#\241(\275N\322\263\2744\306\022=\333\034\245< \350\332\271\343\017\252\275\254\312\023\276\373\333\014=\261Qj\274\325\017:\274\034\321j\275}\035\300;Rk\202\275E\371A\274\354\034\t\275 \021\371\275\255i\014=\312\265\252:\033Ed\273\276\210\300;\032[C<\272Y\226=\n\302\027\276\313\237\241\275\351_\337\273\036\225\\=\376\220\343=\260f\204<\241\227*<\312R\205=\221H\333\274hDS\275]r\334<\347\'\321\273\200\314\250;)\265\352<\333f\000=k\227\373<\236t\263<\254>\035\274j\261\355;\371\"\312\272%S\354<Q\017\240\2748\251r\275\271\211.\275j\353\034=\263\014\233\275\016@\021=(\016\271\271\336K<<\230\225I<Z\177\030\2762\337\"=\246\265\225=,\256\210\276ZZ\256\275)\377\237\275\353\265\305<\001\'\024\275Gy\003\275\032*\230<\225\353\253<\356d\311<\r>\223\276/\240\256=\207d\314;\003\332\374\275\334y\206\275\365\345\204\275\350\263\233<\303\303\035=#N\226\275\r\3130\275\352\355\326\275^fr\274\331p\002\275A\266\304\275*\377\020\276\344Q\351=o\273\337\274\220,r;\375\027\202\273\305\265V<2\314\212;\325\335H=\202\341_=\267\003.\275\351\274\325\275/g\331\274M}+<\372\252C=\250\331r\274J\213\241=G\232\227\273\325v5\274\242\314\366:\373S\206\275 h\r\274\177z\036\275\\\313\r\275\223\340O<\022DD\275\334\243\005\275:\353\r\275\257\274\343;\373\300\210\275\311\241U\273\026\216\230<\372\024@9as\302\275%\025\353=\245\033\022\275\213\017`\2720.B\273!u\r<\000D\246\275\312\200\003\276j:*=\221Z\034\276\2772\201=\017\331$=\320\036\266;\025\323.=b9.\274\300\230;=|\261\177\274\211\365\206\273c\300\312<\252&\240\274&\312O\274\237Ha<\354v\326\274l\367i\275\030\234w=\311Z\\=\245\217\304\273\030\'\375\273\225\215\2528E$\227;s\350\253;|1\366\273\323\354$\274\350c\230\275\342yX\272;\230V\273\247\374\346;\256\245\006;\232\341\341\275B\302\277\275\340\014\202\276\232b6\274\267x^\274\205\203\255\274n\200U=@pm<\267F\343;t\245f\275i\215\340\274\224e\242=\312\310*\274p\243\256=<\346\010\276\345\230\342<\206\312\270=\236\":=\360\225\021>\263\212\245\275\237\272\217\275\307\373\020\275\006Y\311\275\201v\371<\027\200\005=O\211Y<\026(-<\220\017\325<NJ\310;\366\251{;\223\007w\273\357\025\344<`\215\315<\027\010A\2753\0355<\002^\310\276\335!\325\274\177\333\255\275w\303d\274\202?\223\274\316\264\366;\344\377\242\273\035D\372<v\003#\276\025\025\310=\360}e<\210\354\223\275B\361\256\274\347\325Z\274\356]\004=\2010\344=\030|\214<X\231~;Q\212\243;yX\201\275\"\016\t<\215\312\236\272{Q\000\276\366\'\220\275\253@\240\274\2568\237\275\244L\224;\022\305|:0\000N:\035\037\017=\263\357\260\275\275|{;\023\373M\2766\336\372\273\245$\242<\237)n=\001l#\274%\253\027<\266a\226;n\256d\272(\276y\275P\234\206\271\005,\367\274+\220&\273\017\211\021\275\307\025k\275\334yP\274\342e\000\276\325h\207;\014G\311\273\362=X<\010\244]\275\007\217o\272\310n\005=-}\274=\005l\001\276S\256\355;\315\252\032;\023\251\r\272+D\217;\364Lx=\210\205\354\275\300\210\370\274\221\370\014\275\201EH\2750\204^\275\351r;\275\202\274\226=\346O\226\274Nz\001\275\207\035\032=#5\005=)\007*=\244\220v\273\336<\373=2-\322<IR\266\273\217\005\342\274Y\377K=\350#\375\275#\350\265::B\277\275\343\375\016\275sx\370\2739\341\200=\317\231\232\275\366\n\202>x\241\017<1z\031\276#\304\324;\211|Y<*s\025;\270%+\274\331\037r<\203\201B\275\0257\332\2745\034#=F\355\027\275\217?\211\275f\201S=R%F\274_f>\272%Y\222<NL)\274\001\337g=\360\320\204=\334\241\341\274\326\315+=8\315&=\365\302\263=\ry\204=\276\342^<\207\357\002;\373\266\200=\343-n\274\200\234\003=\272\273\017=cI\354\274\367\205\264=t\326\356;X\315c\275sr8=\276\264\270;]\006\351\272\253p\347\274\263\346\263<MR\245\275\343f\016\275B<\t\276,\271\202=?\262\321<nEA=\317T\216\273][\226\274]\335\007\274\230\354\243\275\262\375+=\001\220Y</\254\335=\004\300\226\275$\271\200\275\352r\226=x\026\264<\353\321:\276\035\306\207\276\202e\277\275\264\222\320=i$\375\2740\337\005=S\270\212=l\244$\276oC\007=\360\315\017\275+\352\251\275d6\230\274(\303x\274\307oo\275\216i]=.lM\275\223B\001\275\2276\303=\214\003F\274\252\203\007\275\244\024\035\276\177U\307\274\363\307\323\274\354\350\274\275\262\202\347\276\354\346\361\275\025\265\315=\261\346\006\275pr\340<\261\341i\274\215o\246=\241\327\232\274Z\211\010<\024\202\346\275\200|\235\275n\n\363\272\247\206\337\274\377Jc\275\237\000G=o\016\000\275\246|C\276[\234W=T\262\256\275\013\201#\2737\330\023;\206S\033> A\367\275\305P\371\273\021\201\326\275\372\323\004\275\200\351\013\275i\\\000\275m%H=\331\013b\275\010{\262;\256\203\030\275h\016\271\275=)\222=~\017)=^~#>\021\3177=\"\177\206=rYh=\351w\303\274\321\244\346=\222J\214\275\213\371\033\274\276\264\r\274\236U8=@C\342<9$o=\213^\001\276\257\007\237=\241\222\231=Q\245\020\275\354\020B\275\263\036\003=\346\345\217>\033\022k>\322p~\275[\376\320\275\036\240\264\276mI\315<\324\000\274\274K\351\210\276\211\004>=\354\340e\275\260\021:\273\016\247\215\275\227\253\235\274\252$\373\275A\nx\276n\211\021\275l\306\362<\344g\224\275h_B<\205\200?\276\353Yl=\240\226\205<\244\354\340\274\301\222\314\275P\000\240\276u\315a>\345\324\314<g\265H\276\"\221\200>\347K\343;\326\344\t\275\273\301\360<q\310\270=\240\316\220=\234\217\370<\021\236\266=9F\227\276\325\373\265\275\242V<=\337\'\007>&\277R\276\226\222D=a\375\234<v1\026=\216\013\230<\214f\"\273\013\364O=\346b\240<8$K<\022u\216<\223\273>\2750\233#>\022\257\217=\273G\002\275\217j{<n\332?\274\254\227Y<\271nz\275F\271\317=?\257t<S\004\001\276\372\244\310<\357\2761\273 \361\036<\n\"\000\2757AA=(\365%=\001$\307<\213pd\274<_\202<\216\376:=\221\240\232\274\020\376*\275o\245g;\241\273s\275\023j\312<\006$+<\311i\260;\320a\346<u\177\236=C\207\247\275\360\020a=\021?Z\274\224C\014>\017\007\241<n\004\024\275)w\003=\322E\376=\252\235\000\275t\210\221\274a\360\"\274\233Q\206=m{\024=\332\204x\2753B<\274\243}[\274\017\205#\276Jg\272=\265\017\271\275\216\217\316\276\272l\361\275\271U\345<\312]V\275kr\024\275\314\005\274\275\316E\256\273J?B\276\\zi\271\374\210\270\275\023\020\215\2749\350\223=\326\271Y\275\322&\232\274lJ\227\274L\275\251\275\221\"\316>\337\320\003>\300\217\367<\025\335o\274\224F\220<\207\r;\275\364f\277\275\323\330\t=4%\002\275ZO\331\274Z\302\027=\323x\216\274o\202\r\274G\025\312\274\204\331\304\275cN\032\275s\300\201=z\232\205\276&\354\270\273\366\322\020=7\234\303\275+\200&\275\n\203\351<\345!\005=2\271\013\275\"?\312=\225\205r\275\021\010{=\232\177\343\274\274\343\252=\235\007\257\274\300 \025<\227\030h=\037\367\261\274\022\234v<\351M\266<\323\252\003=\200y\301=I5\364:\325\031R=5\264\273<\3277\257;^q5\274\326\327\276\272\022\033)=\257\037\002\276?K\002\276~\305}\275\2673,>.iH\276\271\306\371<\263n)\275]\334\034:\272\233\210<~\237\017<\212\325\257\275|Fn<\257\323\350\272+\364\021>LT\211\276\254\200Y\275\242\033\006\274\010~\256\275\327\372\244\274m/U\276a\321q>\370$\204=\354@l\276\002\250p\275\202\207\222\276\343?\261=|\262\036>!p \275\342\252/=\364\355\010<(\014m\274\214B\033\273\364\003-=9:5\274\273x\005\275f\352\257=\230A\007\276r\232\034=\022QP=\225\206;\275\315\317\024\274y\316T;\362\277\201\274q\344\350\274\220\351\301\275\346\032G=Sh\000>\003Q\252<\240\233\000\276\253\213\243\275\317\025\254<\217\002\034\275{\226\210=[G\271<\'\177s<\323\r\032\275\323-\204\273\333\265\343\273m~\264\274m\264\206\275-il;2\026\000\275\257\324\025\274z7\313;\\\236\203=Q\330\244<\236\370\023=\366\257\200\271\243\272\005\276\027\003\211\275\021\274\270<\250`k=\245 \036\2754jq\273\276\240$<\227+\335\273\350d\324<\013@\020\274\t\232\016\275[@\033=\331\364*=\341\340\207=)tC=\321D\201\274.\344>\275\366\262\346\272^[\277\272\257\306\006=9\"\300<.S\304;\313\177\305<\002\236?\274\004\317\r=J\213]=\006\346\000\274{\021\347\272p\320\250=O\375\003\276f2\207\275\377f\255\276\370|v\276\352\312\270;(c\'=\220\016V\276\220\320\006\276!\361\215\274W\016\373:L\n\031\274\371\334C=\207\212\334=\356<\263\273\250\241\201\275\241\224:\275]\2013=\036B\306\275\035\364D>\211\n\301\272\271y\022\276qn\224;.\257\371\274gb\037=\227\020\315\275\013\213\314=@\216\375<\377\214g\274~#\216\275]=7;\241\004{<\306\'\232>\340:?\275\276\022\264\274k\002\362\274\034\375\335\275\027\302;<\351x#=%\250\262>\223b.\275\302E\203;\275O\035=\257\370b\274\177\262\304=\265\017A\275\236\326M=\nsE=(\331\"\2755_\360\274\307\373\302\275\215\213-=\212Ww=zMP\275Q\nG\274\377\010\237=\373eA\274=\346y=\373\331T;e{x=\271 \344=\315\213\222<\020\021\032<\366{\274;\257\330};Y\347\017\276|\003\223\275\345V\001>?\311\317\276\330\233\220\275ax\206\275G\216j>\332L\332\275\030\262\333<\2540\223\275DB\240\273j>A\276\260\217\010\275v\210\315\275\000\264t\275}\373\332\273\211\255w\274\034\375W;\377\347(\274%S\333<9\372\035<\276\263\030=\316\347\006\276\334p\342<=\207\234=H\202\375=\232t\231\274\270n\200=\224Qm<\314\331s\274T\277w\272>\210\314<\216!B\274J3\r\275^Il\275>\016\302\276c\366%\275s\315n\275\302\371\236\275Dw?\275\356V\223\274\310e\222=\024\035\243\275\374\2760\275\346\033\005=\207@5=\322\271\036\275^~v\274\210\255\274\274\036}+=\006\017t\275\030\\\313\273\262PE\275\320\010\233\274~uQ\275Z\364\223\273\260\026\217=\213/\213=E\276\017\275\222\216\234;`iZ<\256\345\255\273c}\014;\306\025+>2U:=~z!\275\231b\221\276=d\023=\270D\202\275\3533\340<b3\277=\276\373\245\275\311\230\317=\023\314\254<\234\374\034>ZB\376\273\352\023\377>\035\261\331\274\265\366]<\006T\013\2733\231\273<\213\026\272\275\207\010>\274.(\007\276\037!o\275\276\333\001>\241\325\275;\362\317\t\274\276\271\016\276\006C\315\275J\331\004\275\202a\256\274\"m\210\275\317\233\267;a\213D\270\347E\017:)\376\300<Y#b\273\344\333\257=\374\346`\275\236\007/\274 \262):\277\231^=\305\033\031\275\304\233\270<d\315\214\274\017\201u;\234\005\001\274\367^6=\361\252\316=\364\302\030;\017\263f<\263P\254\274\242\3267\275\376}r=\334s\306<\001\345a=\013\251\241<j\253f=K\360\362:\375\010\020=z,5\273R^\271=\204\363-\275\365\316:\275\340\255c\273\3775\215\272\203~l\275\277\262\005\275Qv\332\274\202\347\247\274\247\213\030\276ei\273\275F\033\243<\013X\030=\367\036L\275a\373\3049Me\250;\340\332\014;\360\233\242<\3032T=\034;^\274&\357\216\275,\235\032\275(\366\027\275\030t\212\275\265\2544=\221\367\341\275z\376\366<\265\364\262;<[n\276\336\2052;d\363\277<\314\366\262\273\220\222Z\276-\361F\274\202k\027\275\2110i\273\307\356v9\004\267\257\273\227y\320\274\372C7\275\004\303\355;=a\016\276\n\317f\274\341\340}\274\213k\020=q*\n;\\\036\036<\031pH\275\257\371Z;T\276(=/\232\031\2766|w<b\020\372\274\356\222\237=^8.\275+\357:=Xk`\275\365\353\274=\366!\036=!\024\002<\004*\300\274L\370 \274\t@6\274\260@\276<\330\020\201;%X\026\273\035\220E\275?C4\273\333@\310\273\276\271\214\274qym\275\315<\212\275\316J\217\2751\2560\276x\020X=6+\325:\221\000O>\311\344-\275@E\254<\273,\237=\311,